#version: 0.2
e n</w>
e r
i n
t h
u n
e n
t i
e r</w>
c h
a n
th e</w>
o n</w>
d i
r e
s t
o n
o r
i t
d er</w>
e s</w>
i s
i n</w>
a r
a l
r o
o f</w>
l i
di e</w>
a t
e s
e l
a ti
un g</w>
e d</w>
s i
a u
an d</w>
e i
e in
d en</w>
t o</w>
c h</w>
un d</w>
o m
in g</w>
g e
u r
b e
s ch
o r</w>
m en
a l</w>
g en</w>
a s
r a
p ro
e c
ati on</w>
w i
r i
t en</w>
u l
d e
u s
f ü
a s</w>
o l
d er
t er
a b
v er
h r
i s</w>
om m
a t</w>
a n</w>
l e</w>
e g
e m
e t
a c
V er
t s</w>
e h
2 0
ch en</w>
s p
c on
d es</w>
t e</w>
i t</w>
f or</w>
z u
f f
w er
v on</w>
fü r</w>
i l
s u
f or
un gen</w>
v e</w>
b er</w>
ati on
d e</w>
i ch
un g
ti on</w>
s h
g e</w>
a m
S t
men t</w>
g en
a h
c e</w>
c i
p o
l e
si on</w>
v i
z u</w>
b e</w>
d u
A n
e it
A r
c o
en t
b er
el l
a p
u ro
f i
e d
au f</w>
ung s
l o
is sion</w>
o p
E uro
e x
a f
w h
n o
omm ission</w>
Euro p
th at</w>
i m
l y</w>
m a
m e
t e
m en</w>
ti on
it y</w>
i m</w>
20 0
m it</w>
ä n
wer den</w>
l a
b y</w>
li ch
al l</w>
q u
c om
ein e</w>
di es
s o
U n
n e
w it
at e</w>
wit h</w>
wi r
z i
s e
r u
p ar
g i
ei t</w>
t ra
Ar ti
u t
a d
k e
I n
t a
de m</w>
in i
an d
is t</w>
is chen</w>
i g
es s
or d
p or
o der</w>
sch af
d as</w>
e m</w>
t r
e st
g li
t er</w>
w e
en t</w>
s e</w>
st a
m m
ar e</w>
a ch
as s
o u
i on</w>
for m
g es
a r</w>
c k
st ell
v or
M it
em ber</w>
ich t</w>
t s
u m</w>
zu r</w>
p er
au s
w en
A b
20 1
th is</w>
re s
as s</w>
com p
ti g
n ah
ter n
al s</w>
s in
ge m
l u
ur e</w>
at es</w>
du c
E U</w>
a ch</w>
ul d</w>
b es
R eg
E r
t ed</w>
u m
g ra
d ass</w>
a hr
be i</w>
an ce</w>
e b
re c
ol l
ü ber</w>
A us
i ch</w>
d ur
sh all</w>
in g
men ts</w>
m it
at en</w>
i r
th er</w>
m ar
C ommission</w>
l ei
f in
be t
f ol
is ch
ti ve</w>
al l
w or
e ch
f er
wir d</w>
ti es</w>
k t
n icht</w>
et z
p l
no t</w>
li ch</w>
er e</w>
li chen</w>
ein er</w>
d en
K ommission</w>
ö r
o uld</w>
S ch
fü hr
n ung</w>
E n
E in
h al
B e
Mit gli
g el
t en
wh ich</w>
e in</w>
r ü
li c
h a
i er
m o
ation s</w>
un d
e u
sin d</w>
ge b
ro m</w>
u f
g an
st r
au f
M ember</w>
e an</w>
s o</w>
f rom</w>
P ro
ab le</w>
at ed</w>
ed sta
Europ ean</w>
si ch
D i
c es</w>
p ri
re s</w>
wi e</w>
t ei
er s</w>
Mitgli edsta
s ti
tion s</w>
c le</w>
in c
a g
o b
t z
ac c
V or
Europ ä
i e
n ach</w>
s t</w>
y st
d s</w>
ä r
ul ation</w>
lich e</w>
n en</w>
es s</w>
si ch</w>
au s</w>
pro duc
z w
en den</w>
Un ion</w>
sp ec
g r
t l
be it
st ru
i c
s at
m e</w>
po s
ke l</w>
d ung</w>
d ed</w>
ap p
t o
st en</w>
Arti cle</w>
t u
Arti kel</w>
d o
it s</w>
w ur
r it
con t
d ing</w>
t ung</w>
B er
co un
g er
C omm
an t</w>
t ing</w>
wi l
ci al</w>
s er
ar y</w>
e p
b u
k eit</w>
op er
d a
M a
sh ould</w>
l ung</w>
B es
on s</w>
re i
St ates</w>
re d</w>
g n
nah men</w>
dur ch</w>
si e</w>
s s
Reg ulation</w>
c er
s ec
en s
su b
ord nung</w>
v o
ein en</w>
an n
v el
is e</w>
re qu
l eg
f ahr
Mitgliedsta aten</w>
sat z</w>
k t</w>
ou t</w>
wil l</w>
En t
g h
h o
it ä
C o
e ff
ab en</w>
n ation
tr an
s oll
u b
ö n
au ch</w>
ta k
w ä
us s</w>
er h
en d</w>
isch e</w>
o ther</w>
1 9
m in
au th
i hr
t el
i fi
re g
er ung</w>
E C</w>
auth or
ha ve</w>
re ch
N o</w>
ti c
t schaf
R ech
pro c
ü ber
dies e</w>
an der
im p
h as</w>
E U
j ec
ß nahmen</w>
s am
p f
Europä ischen</w>
i d</w>
o ff
v is
v e
an g</w>
m an
for der
pro vi
dies er</w>
fin an
s yst
p re
P ar
w el
ti v
lo w
Ver ordnung</w>
r an
i c</w>
k ön
ü r
eh men</w>
in form
U m
li e
ti mm
w as</w>
p p
por t</w>
' s</w>
ch n
in v
d ar
er i
v er</w>
l l
b o
as e</w>
K on
t h</w>
c omm
al en</w>
me as
b en
ati ve</w>
gra mm
gem ä
o h
ap pro
g ro
on der
Ü ber
men t
g t</w>
un ter
ein em</w>
z eu
e k
st än
is h
th ei
thei r</w>
b il
us am
gemä ß</w>
th o
l ä
in ter
G es
eit en</w>
b r
p res
en en</w>
re gi
st ri
Ab satz</w>
ein es</w>
ti fi
es t</w>
at eg
Co un
a ge</w>
g u
ation en</w>
Di rec
en z
m on
f o
al so</w>
in tern
f u
ma y</w>
wi ck
t ri
f ra
an n</w>
ci l</w>
r is
Coun cil</w>
te chn
v or</w>
in n
ge h
h at</w>
vo m</w>
inc lu
wi th
w eit
t re
i o
w ar
zu m</w>
an y</w>
A uf
tl ini
z ei
h in
R ich
de vel
al ly</w>
omm en</w>
st eh
inform ation</w>
or e</w>
s ol
th er
i ties</w>
en ce</w>
er t</w>
re l
s etz
G r
usam men
ke t</w>
en s</w>
schaf t</w>
rü f
u r</w>
in s
a m</w>
meas u
Ma ßnahmen</w>
or s</w>
at ing</w>
un ter</w>
on om
t n
in e</w>
ab l
t ro
su ch</w>
ut z
ri f
F or
r ä
E G</w>
en de</w>
ri ch
ü ck
acc ord
St ate</w>
mar ket</w>
Rich tlini
a k
Comm un
ne u
ges ch
D ec
Bes ch
v al
ub li
b a
19 9
nah me</w>
g o
k en</w>
un der</w>
wä hr
u p</w>
mit tel
Un tern
wor k</w>
B eh
so wie</w>
er n</w>
G em
gan is
Un ter
d ec
tra g
al e</w>
r .</w>
devel op
be en</w>
ol o
Direc tive</w>
b ar
W ir
eh m
er en</w>
ti gen</w>
eh r</w>
N r.</w>
on e</w>
b le</w>
ser vi
Ar beit
bes onder
li ti
kön nen</w>
m ore</w>
t ur
es e</w>
k ann</w>
ar i
k on
p a
ä l
measu res</w>
k l
app lic
Commun ity</w>
stän di
w a
pro gramm
g re
il f
ch an
ec onom
än der
sch rif
lei ch
imp le
re fer
en st
B et
Richtlini e</w>
y e
con si
h ig
Gem ein
ss en</w>
requ i
s el
v en
w ei
ü tz
l an
j e
h ang</w>
m ö
ent r
f est
er g
fol low
1 0
wur de</w>
in di
Z u
sch en</w>
us e</w>
con cer
w n</w>
us t</w>
Z usammen
te t</w>
en g
wh ere</w>
ä tz
h er
or y</w>
v en</w>
i el
di s
bet we
em p
betwe en</w>
itä t</w>
sti tu
wen n</w>
R ah
fahr en</w>
si s</w>
H er
v ed</w>
th ese</w>
e ment</w>
zw ischen</w>
lie ß
stell en</w>
is s
M ar
h e
ab il
pro pos
ne w</w>
nation al</w>
k s</w>
gem ein
c y</w>
ch e</w>
h aben</w>
g ung</w>
In form
stell t</w>
s on
ö ff
f ac
in to</w>
f all
I I</w>
el le</w>
b is</w>
ubli c</w>
gel eg
e t</w>
c u
d es
t y</w>
a re
h and
concer n
th e
i f</w>
intern ation
ing s</w>
di es</w>
p h
tic ul
is se</w>
Ent wick
or der</w>
tei l
par ticul
wir k
schrif ten</w>
m ü
st at
ra f
k e</w>
der ung</w>
est abl
lei st
stru c
p ur
st and
for e</w>
Gr und
st ütz
wir tschaf
is ion</w>
spec ifi
c l
a ff
wur den</w>
te e</w>
soll te</w>
eff ec
c ar
g er</w>
e f
ab e</w>
si on
sch ließ
bes timm
F in
n ec
em s</w>
po in
k o
bes ch
Untern ehmen</w>
al le</w>
su p
w ould</w>
ü n
im por
c ation</w>
ä f
b ei
Dec ision</w>
i st
i es</w>
ch t</w>
K o
EU -
wen dung</w>
v ing</w>
de t</w>
syst em</w>
us s
besonder e</w>
c al</w>
accord ance</w>
tion en</w>
sch ei
ge führ
val u
öff ent
or ganis
finan cial</w>
ve l</w>
s it
r on
econom ic</w>
ar d</w>
r au
d at
T ei
the y</w>
be wer
A u
m s</w>
Fin an
th an</w>
se t</w>
follow ing</w>
r ul
eit s
un der
1 0</w>
i en</w>
t lichen</w>
i h
ar beit
as ed</w>
c an</w>
u s</w>
Rah men</w>
1 .
p en
la ge</w>
gen er
c re
An ne
for m</w>
E W
is i
Anne x</w>
b ess
tr ä
produc ts</w>
en ti
Beh ör
t or</w>
2 .
te l</w>
pro vis
R e
fol gen
Rech ts
a id</w>
ur ch
e l</w>
r in
ther e
an s</w>
t ec
m p
gh t</w>
an ti
ent sp
fi r
D urch
E S
b en</w>
b in
h ilf
ti ge</w>
n ach
or t</w>
sp on
tran s
with in</w>
tran sp
b i
re le
po si
Wir tschaf
le vel</w>
2 0</w>
ti g</w>
k eiten</w>
y p
ex c
develop ment</w>
t ure</w>
ou s</w>
d el
se in</w>
ihr e</w>
servi ces</w>
es ti
p ublic</w>
ru pp
t ungs
ge ment</w>
establ ish
coun tri
en n
0 0</w>
ou r</w>
m at
me di
countri es</w>
ander en</w>
i ed
tho se</w>
eh en</w>
it tee</w>
gli ch</w>
qu al
g aben</w>
ah l
Comm ittee</w>
n ur</w>
is ier
ad op
ci p
pl ac
ell en</w>
re spon
l and</w>
oper ation</w>
vi e
dies em</w>
k ing</w>
e ti
ins besondere</w>
as t</w>
author ities</w>
mü ssen</w>
so cial</w>
si ble</w>
con di
3 .
er ungs
per io
ap it
d a</w>
f ass
S ich
m ust</w>
ch st
an ge
er k
consi der
gen ann
w al
ber eit
ä tig
ta in
f ä
t ungen</w>
us ed</w>
a v
k ommen</w>
el t</w>
ac coun
di ff
sam e</w>
er hal
pro tec
et t
Aus sch
et s</w>
inc re
on ly</w>
Ber ei
a men
ta in</w>
st s</w>
refer red</w>
m ini
g lich
particul ar</w>
In ter
po lic
ar ds</w>
den en</w>
ens ure</w>
wer e</w>
er forder
et y</w>
b eit</w>
tra c
du k
so ur
An hang</w>
g h</w>
con c
a il
rele v
soll ten</w>
G e
dat a</w>
provi ded</w>
er gi
4 .
p rüf
in du
v es</w>
en e</w>
li g
tion al</w>
rul es</w>
nec ess
c ul
g leich
y ing</w>
polic y</w>
programm e</w>
p e
inclu ding</w>
ro u
t eg
g s</w>
setz ung</w>
ö h
ti me</w>
führ ung</w>
et e</w>
lich er</w>
R ates</w>
m il
J ah
on -
l uss</w>
str ateg
requi re
is ed</w>
un k
Inform ationen</w>
b l
m uss</w>
e qu
a gra
sp e
ac t</w>
i e</w>
P er
abil ity</w>
Europä ische</w>
Entwick lung</w>
em e</w>
t lich</w>
in stitu
i ci
B ei
stell ung</w>
el s</w>
dies es</w>
n um
so ci
ihr er</w>
is su
reg ul
A gre
ll en</w>
re ff
Agre ement</w>
we ise</w>
h eit</w>
y ment</w>
ic al</w>
necess ary</w>
tra g</w>
o d</w>
ation s
si gn
appro pri
M e
emp lo
ment ation</w>
a d</w>
k om
G eb
sh i
z el
f ur
k eine</w>
al y
ed o
B ed
200 6</w>
ne t</w>
Sich erh
bet reff
jec t</w>
A k
dur ch
t w
perio d</w>
rü n
i on
p ra
ex p
re it
P re
par agra
H au
c ri
inv est
sch e</w>
condi tions</w>
l in
ad di
ac tion</w>
sup port</w>
st e</w>
ge währ
regi on
sch la
a gement</w>
res ul
201 3</w>
po liti
c ur
vi ron
par t</w>
200 4</w>
d am
Ä n
olo gi
en viron
Gemein schaft</w>
el y</w>
200 9</w>
m pf
b t</w>
u p
er ten</w>
zu ständi
l än
t liche</w>
Z eit
vie w</w>
h än
th ere</w>
B u
ri eb
ini ti
ke hr
be steh
O r
geb en</w>
n e</w>
ver n
s om
ass ung</w>
ing ungen</w>
f und
wi ch
ma de</w>
ge stellt</w>
sch n
är k
P o
200 8</w>
tion s
fall s</w>
ett bewer
comp eti
Ver fahren</w>
f re
f ul
w ach
m ehr</w>
h ar
ob jec
en th
st o
e -
th rou
cont ro
pf lich
Di enst
G er
st er</w>
mar k
schließ lich</w>
tak e</w>
s ul
tig ung</w>
wh en</w>
Arbeit s
there fore</w>
bu t</w>
genann ten</w>
S A</w>
R at</w>
require ments</w>
ges etz
ba sis</w>
f ör
appropri ate</w>
sch ied
S o
en z</w>
num ber</w>
is l
re ich
Bes timm
e ach</w>
An wendung</w>
i ons</w>
specifi c</w>
g es</w>
af ter</w>
EU R</w>
pres ent
li a
G en
ar beit</w>
l ar
Ent schei
D e
p h</w>
Finan z
s af
ac ti
geführ t</w>
s or
el n</w>
re spec
sta at
st an
Be zu
no ch</w>
Bei hilf
v ol
relev ant</w>
t yp
c ase</w>
po li
Ver ein
j edo
jedo ch</w>
rit eri
f en</w>
m m</w>
im pro
geleg t</w>
in u
no v
bil ity</w>
en erg
a i
con su
tig t</w>
d ent</w>
men s</w>
200 3</w>
imple mentation</w>
z us
do wn</w>
ma in
N o
de ut
zeu gn
ehm ig
as si
f e
ass ess
m ä
ass en</w>
teg r
tiv es</w>
1 2</w>
Par la
poin t</w>
forder ungen</w>
z o
author ity</w>
änder n</w>
olo g
impor t
so zi
St ell
Wirtschaf ts
r en
ah l</w>
protec tion</w>
i den
tak en</w>
i a</w>
Z iel
man agement</w>
au ß
i z
energ y</w>
t ors</w>
sec ur
paragra ph</w>
gen ommen</w>
F ra
1 5</w>
ar s</w>
diff er
tei lung</w>
applic ation</w>
b ased</w>
cont ri
j u
par ti
P rüf
gr enz
si ons</w>
co ver
br au
un ic
comp et
Q u
200 7</w>
Behör den</w>
per s
is sion
provi de</w>
provis ions</w>
a ir
der n</w>
ä u
li eg
Par lia
entsp rech
ad mini
sch lä
ment al</w>
acti vi
in stru
fra me
Parlia ment</w>
St a
b ar</w>
200 2</w>
internation al</w>
en ts</w>
at er</w>
be h
activi ties</w>
h i
st off
er te</w>
la gen</w>
is ation</w>
un kt</w>
ye ar</w>
av ail
W ettbewer
as es</w>
accoun t</w>
ess en</w>
we ver</w>
ho wever</w>
h ol
200 5</w>
En ergi
M en
c le
t es</w>
sp o
p rin
1 1</w>
de st
dam it</w>
ac k
ex t</w>
su pp
finan zi
ne ed</w>
con trac
be g
201 0</w>
par tn
stru kt
w ür
frame work</w>
Um wel
syst ems</w>
ück sich
o ut
Ver wal
st ance</w>
vor schriften</w>
J ahr
isch er</w>
3 0</w>
st u
Pro duk
n on-
Europ e</w>
schn it
c or
g s
g keit</w>
el d</w>
d ah
throu gh</w>
concern ed</w>
proc e
aus ge
m i
n at
proc ed
leg isl
y s</w>
re port</w>
5 0</w>
rupp e</w>
ar ly</w>
ich t
he al
un i
201 4</w>
go vern
th ir
b an
gener al</w>
al er</w>
200 1</w>
Zusammen arbeit</w>
F ahr
or en</w>
ig n
200 0</w>
u al</w>
führ en</w>
comm on</w>
comm unic
f l
tic al</w>
j o
gr und</w>
1 2
me ans</w>
sh al
am o
tra gen</w>
Jah r</w>
o ver</w>
cer tain</w>
1 .</w>
b us
ge gen
A gen
leg al</w>
fur ther</w>
cont inu
op ini
fu hr
hal ten</w>
re se
E C
L eb
admini str
is h</w>
a b</w>
be d
c ap
at s
dur ing</w>
d ate</w>
b el
co uld</w>
201 2</w>
der s</w>
ag re
R isi
t ly</w>
imple men
erhal b</w>
201 1</w>
co operation</w>
h e</w>
el ec
amo un
dah er</w>
chan ge</w>
wa y</w>
zei ch
D aten</w>
str y</w>
gen en</w>
proced ure</w>
u mm
a st
wel l</w>
ge gen</w>
ti m
ander e</w>
res s</w>
z ul
Gemein schaf
ges am
we is
me tho
pri v
ex am
rau m</w>
produc tion</w>
gh ts</w>
gemein sam
lo w</w>
S yst
spe zi
nation alen</w>
n ehm
mit tel</w>
dies en</w>
in ten
ut z</w>
l and
c k</w>
su ch
la w</w>
avail able</w>
tr y</w>
cur r
s ätz
Per son
on g</w>
ö ß
ci es</w>
at ory</w>
da ß</w>
de f
tw o</w>
brau ch
N or
th re
w es
Berei ch</w>
Ver trag
gan g</w>
propos al</w>
ec ted</w>
produc t</w>
ent ly</w>
1 4</w>
ne ed
m er</w>
ter min
B an
kön n
Mar kt
ben e</w>
d y</w>
pos sible</w>
sec tor</w>
ris k</w>
1 3</w>
mä ß
fir st</w>
In v
war en</w>
tak ing</w>
Vor schriften</w>
der en</w>
Bu chst
R ep
d ge
B eit
H in
sp ar
s ed</w>
Kon tro
r än
app ly</w>
ES C</w>
bus in
er n
J un
contri bu
ff en</w>
schla g</w>
5 .
adop ted</w>
d ungen</w>
uss es</w>
tur al</w>
d ungs
conc lu
t al</w>
st er
c an
Stell ung
im um</w>
at s</w>
c lo
F ör
ab er</w>
geb n
Bezu g</w>
w o
i zi
f y</w>
co sts</w>
n et
Bestimm ungen</w>
compet ent</w>
in ation</w>
are a</w>
an u
with out</w>
S p
wirk ungen</w>
gro up</w>
i gen</w>
transp ort</w>
ein zel
mat eri
hig h
Ges ch
ein schließlich</w>
en ten</w>
thir d</w>
o ver
pro mo
indi c
heal th</w>
eu er
de l</w>
l ungen</w>
comp an
tra de</w>
un c
ex ist
neu en</w>
re duc
parti cip
äl t</w>
som e</w>
sh o
ber ei
i li
al o
Mitgliedsta at</w>
m ul
ä hr
h um
an aly
an im
S e
zi eh
ter s</w>
m u
beh ör
k re
mo st</w>
ver wen
ma ßnahmen</w>
gli chen</w>
raf t</w>
leist ungen</w>
sub ject</w>
l at
are as</w>
secur ity</w>
g abe</w>
l ine</w>
ven tion</w>
ber s</w>
ch ar
in tegr
Reg el
techn ical</w>
J anu
Hau shal
z ü
ac tions</w>
in es</w>
re por
b ein
a in
en falls</w>
tei l</w>
Unter stütz
coun try</w>
i ge</w>
ges ell
st ed</w>
Tei l</w>
acc ess</w>
ö s
shi p</w>
stell er</w>
emplo yment</w>
en cy</w>
1 3
b al
ri ghts</w>
gi ven</w>
i l</w>
ha d</w>
neu e</w>
h an
n eg
H and
p unkt</w>
iss en</w>
e ments</w>
contro l</w>
s si
f f</w>
rese ar
sour ces</w>
bo th</w>
zi al
ver fahren</w>
B eg
di rec
saf ety</w>
l ab
Be wer
b s
qual ity</w>
folgen den</w>
posi tion</w>
le it
pra c
tifi ed</w>
f rei
ep t
v eh
ye ars</w>
inv ol
ex per
t sch
Grund lage</w>
itä ten</w>
all gem
po ten
u ation</w>
opini on</w>
ver b
un den</w>
N ach
li mit
Z w
2 5</w>
equ i
ä ch
do cu
Entschei dung</w>
ie l</w>
ob lig
D rit
gra mm</w>
com men
re gel
invest ment</w>
R ück
f t</w>
kl är
un tern
gesetz t</w>
di enst
y o
servi ce</w>
zuständi gen</w>
l ü
rel ated</w>
ach ie
I II</w>
st ar
z en</w>
Zusammen hang</w>
g lei
wh e
j ek
Pro gramm
p er</w>
pl an</w>
F lu
T re
ben ef
at ors</w>
w oh
tr on
Um setzung</w>
ai r</w>
Wir k
ver y</w>
com e</w>
sich er
establish ed</w>
M on
ver ein
bereit s</w>
assess ment</w>
l ess</w>
Tei l
rec ei
n er</w>
E ESC</w>
m em
Leb ens
car ri
n or
plac e</w>
sign ifi
0 00</w>
or ig
c ing</w>
d ra
So zial
concern ing</w>
bu dge
Ver brauch
ma ke</w>
st e
T ätig
währ end</w>
en d
t ation</w>
itä ts
si ve</w>
et ing</w>
v oll
E EC</w>
1 8</w>
M r</w>
le m</w>
gr an
c al
ie der
K omm
E x
re ad
B o
inn erhalb</w>
oh ne</w>
Unterstütz ung</w>
o b</w>
St and
raf t
par ties</w>
wen di
indu stry</w>
enth al
do es</w>
s en
mon it
Inv esti
ver k
an gem
off i
in ing</w>
be fore</w>
A l
gemeinsam en</w>
i ti
proc ess</w>
For sch
C on
EW G</w>
re present
Er gebn
resear ch</w>
um fass
t wendi
Ges am
199 9</w>
men te</w>
ech n
respec t</w>
z ur
E bene</w>
in nov
co ur
F ol
a z
J ul
Ma ß
pur su
gro w
1 6</w>
en ces</w>
isier ung</w>
t wor
ä h
b zw
Bed ingungen</w>
bzw .</w>
betreff enden</w>
Buchst abe</w>
ihr en</w>
valu e</w>
N utz
L uf
str eng
sec tion</w>
ter n</w>
consider ed</w>
mittel n</w>
kt or</w>
liti k</w>
vel y</w>
S it
z eit
si eh
legisl ation</w>
me hr
201 5</w>
erforder lich</w>
de termin
Ver k
imp act</w>
a gen
z eit</w>
ti ce</w>
Besch äf
För derung</w>
K apit
auf grund</w>
mö glich
U r
St r
con tain
reg ard</w>
g il
stand ards</w>
th em</w>
spec i
vor ges
li on</w>
ma in</w>
f ish
re commen
Ko sten</w>
in gen</w>
w är
ati ven</w>
rich tung</w>
ie t</w>
eff ici
proce du
D at
umm er</w>
unter stütz
procedu res</w>
öffent lichen</w>
D o
zi erung</w>
M o
T ran
Aus wirkungen</w>
An forderungen</w>
Ber ich
de fin
ver schied
ab o
k ün
sta in
indu stri
d o</w>
region al</w>
p u
re as
sol l</w>
st re
Er zeugn
Or ganis
F est
vi du
c oll
pro f
ati ves</w>
requi red</w>
in t</w>
l au
Vor schlag</w>
Durch führung</w>
import ant</w>
er fü
il l
n am
ver s
auß er
schaf ten</w>
bein g</w>
s ur
t al
fer n</w>
hän gi
z ahl
ent wick
Ges und
differ ent</w>
indi vidu
s k
sich tlich</w>
ier ung</w>
ge w
1 4
rei b
pl an
1 6
ri e
app li
man y</w>
ta il
er fol
to tal</w>
an zu
An gaben</w>
jec ts</w>
ter m</w>
ein ge
ber ücksich
trä ge</w>
Arti k
gr öß
Tre at
r ate</w>
m er
i d
lic k</w>
whe ther</w>
1 5
l assen</w>
su stain
Str ateg
implemen ting</w>
st om
communic ation</w>
k no
g lo
Treat y</w>
all en</w>
ig er</w>
f ut
ati sti
po se</w>
t ä
folgen de</w>
applic able</w>
amoun t</w>
ation al</w>
Än derung</w>
l ungs
wor den</w>
EW SA</w>
zus ätz
den ce</w>
f unc
tifi cation</w>
it ed</w>
ei st
con sul
1 7
sich t</w>
z un
wh o</w>
v ari
w ar</w>
Bet ei
a u</w>
ti al</w>
der ungen</w>
inn en
vor gesch
1 7</w>
l etz
i ff
en ter
B el
Ver pflich
environ mental</w>
. .
ad d
in de
Fahr zeu
Europ a</w>
compan ies</w>
p ub
s s</w>
programm es</w>
t ar
Stellung nahme</w>
busin ess</w>
Sicherh eit</w>
gil t</w>
s y
for ce</w>
Gesch äf
lei sten</w>
h eiten</w>
P ri
Parla ments</w>
sin ce</w>
E i
mit ted</w>
hig h</w>
d re
v al</w>
en der</w>
es tig
cu stom
P rä
woh l</w>
propos ed</w>
objec tives</w>
Behör de</w>
M ini
tra ining</w>
le x
L eit
weit ere</w>
se e</w>
mit tl
proc ess
exist ing</w>
ag ain
again st</w>
spezi f
ver fü
Zw ec
incre ase</w>
bet ro
M ö
da zu</w>
1 8
B ür
Aussch uss</w>
pri or
mar kt</w>
effec tive</w>
Über ein
re co
di t</w>
l es</w>
we i</w>
s einer</w>
dar auf</w>
competi tion</w>
en ess</w>
se qu
o ds</w>
struc ture</w>
strateg y</w>
e der</w>
p ass
def ini
co p
z entr
C h
strukt ur
h y
Verwal tungs
cl es</w>
per son
ra g</w>
ta x</w>
me chan
pro g
on ds</w>
n ei
K re
por t
h el
g le</w>
pe op
fä hig
l le</w>
G rün
z wei</w>
y -
in f
c ases</w>
2 1</w>
st and</w>
B il
su ff
Qu al
comm it
des ign
inter est</w>
s eine</w>
n ehmen</w>
ar an
la id</w>
C hin
mem bers</w>
hal tung</w>
be k
Mö glich
cap ac
si dent</w>
zi el
so li
ba si
K om
in tro
per form
Über wach
inclu de</w>
addi tional</w>
3 1</w>
F isch
g ungs
uf ac
wor k
f ri
B innen
r ati
inv estig
2 4</w>
tre at
leg ung</w>
lä u
d ür
Inter ess
man ufac
el ek
intern al</w>
d ings</w>
i le</w>
read y</w>
le ast</w>
amen d
c ed</w>
F all</w>
comp li
ab hängi
bar en</w>
pres ent</w>
or ing</w>
Ver bess
at or</w>
fut ure</w>
Gemeinschaf ts
z e</w>
inn e</w>
si bility</w>
Z iel</w>
steh en</w>
Z ahl
Ziel e</w>
peop le</w>
ur al</w>
da y</w>
e valu
du e</w>
fest gelegt</w>
w s</w>
v ent</w>
accord ing</w>
is ch</w>
p ec
tre ten</w>
stan ces</w>
fo od</w>
St u
u tion</w>
c entr
ma x
De z
E mpf
Luf t
t om
k un
l on
B est
reco gn
kom mens</w>
rich tungen</w>
gel ten</w>
schnit t</w>
ke y</w>
Ei gen
de tail
erh eb
geleg ten</w>
zu stellen</w>
Unter such
grow th</w>
wirtschaf tlichen</w>
führ ungs
curr ent</w>
201 6</w>
re sources</w>
ier en</w>
Pro to
ri cul
soci ety</w>
W e
us ing</w>
c ro
ab out</w>
1 9</w>
p ati
i v
stri c
Dec ember</w>
ateg or
pro jects</w>
ep t</w>
ver kehr
treat ment</w>
au se</w>
Dez ember</w>
No v
Mit tel</w>
de m
b lick</w>
W er
aus sch
Person en</w>
0 ,
on d</w>
Ein fuhr
b re
poli cies</w>
C O
Ver wendung</w>
sin gle</w>
K enn
ur t</w>
mul ti
qu es
a kt
p le</w>
apit al</w>
M E
mar kt
ci vi
b ro
A pri
institu tions</w>
Rechts vorschriften</w>
ve ment</w>
in fra
Sch utz</w>
it e</w>
gro ß
gu aran
G el
Apri l</w>
F ä
Nov ember</w>
refer ence</w>
gr und
s ei
sätz e</w>
Gen ehmig
sit uation</w>
nehm er</w>
typ e</w>
ge geb
pl es</w>
abo ve</w>
öffent lich
lie gen</w>
environ ment</w>
si de</w>
ag ricul
hum an</w>
ie ten</w>
h eit
et er</w>
an twor
w er</w>
dar über</w>
tiv ity</w>
lich keit</w>
P ati
thre e</w>
ann ual</w>
administr ative</w>
teil t</w>
lo ssen</w>
carri ed</w>
se i</w>
In iti
Arti cles</w>
s en</w>
rei chen</w>
geb o
eff izi
pri ce</w>
st ärk
wh ile</w>
is p
E G
kün f
eh men
h t</w>
l ini
go ods</w>
3 0
r ing
nor m
wes ent
e duc
al ready</w>
wor king</w>
du mp
wer t</w>
Co urt</w>
du ce</w>
p s</w>
ung sp
an ges
tu r</w>
ma j
jo int</w>
m ig
min dest
Wettbewer bs
p ä
o c
S ept
außer dem</w>
gen ehmig
fund s</w>
ex por
ex ten
b ur
tar ge
k u
so fern</w>
m el
Sept ember</w>
betro ff
st atisti
f er</w>
gel ten
T h
glo b
ur o</w>
mindest ens</w>
vor lieg
ver bess
Ber icht</w>
6 .
wi es
Gesam t
capac ity</w>
priv ate</w>
ter rit
hin sichtlich</w>
arbeit ung</w>
wür de</w>
ex tern
Sicherh eits
ac tive</w>
be zo
rü ck
ge änder
ad v
Mit tel
dre i</w>
ge ei
pursu ant</w>
ter ms</w>
t est</w>
riteri en</w>
n ungs
Besch luss</w>
geh en</w>
m ission</w>
L i
resul ts</w>
or i
ll t</w>
is ti
g ü
Be deut
ich ts</w>
Beh and
ba u</w>
mechan is
internation alen</w>
Bedeut ung</w>
li gen</w>
dec isi
appro ach</w>
Bewer tung</w>
b reit
Zu gang</w>
comp any</w>
i g</w>
Par tn
c riteri
pre par
F r
criteri a</w>
I tal
P f
än der</w>
T a
glei ch</w>
organis ation</w>
s m
exc lu
fac il
har mon
b ri
zü glich</w>
w eit</w>
Durch führungs
mil lion</w>
requ est</w>
Rech t</w>
o t
civi l</w>
monit oring</w>
co ord
G re
is ing</w>
Ar z
reg ar
cover ed</w>
signifi c
al low
m g</w>
ha ving</w>
need s</w>
Jahr en</w>
zw ei
berei ch</w>
ro le</w>
z es</w>
est s</w>
weis en</w>
bu il
e uro
S inne</w>
ä mpf
B .</w>
cle ar</w>
Haushal ts
f äl
br ingen</w>
p ack
M in
be hand
tei en</w>
untern ehmen</w>
m ers</w>
je wei
tei le</w>
sp ek
reg ards</w>
St euer
w e</w>
Reg ion
bestimm te</w>
Hin blick</w>
2 2</w>
geführ ten</w>
intro duc
em en</w>
ü hr
Au ff
m ei
gu i
sup por
rit te</w>
h eits
gi bt</w>
er e
A m
budge t</w>
n utz
re view</w>
an k
pers ons</w>
L eist
Verbess erung</w>
p tion</w>
för der
di g
gesell schaft</w>
re p
sp r
L and
h en</w>
Z oll
ac k</w>
dar f</w>
comp l
c ause</w>
Ban k</w>
transp ar
sustain able</w>
poten tial</w>
s se</w>
2 3</w>
no twendi
ig n</w>
tig er</w>
ho w</w>
co -
könn te</w>
u li
In stru
rupp en</w>
mark ets</w>
erhal ten</w>
d ri
20 20</w>
0 0
all er</w>
addi tion</w>
prin cip
bed ingungen</w>
ol le</w>
Beihilf en</w>
Ar t</w>
C A
E I
t em
Pati enten</w>
Drit tl
gran ted</w>
ra cht</w>
il y</w>
Dienst leistungen</w>
organis ations</w>
techn ologi
pos es</w>
Regel ung</w>
t sp
rel ating</w>
fähig keit</w>
o gra
ri ght</w>
Verein bar
9 0</w>
olog y</w>
Hand el
pu t</w>
pri ces</w>
instru ments</w>
h and</w>
ur ing</w>
signific ant</w>
e gen</w>
l ist</w>
dec i
s a
lo cal</w>
prog ress</w>
eh l
ti z
defin ed</w>
z usammen
N ummer</w>
le vel
2 8</w>
bestimm ten</w>
Mit teilung</w>
in al</w>
r ise</w>
suff ici
mö glich</w>
g ed</w>
Artik els</w>
ih r</w>
se ver
Ver kehr
Prüf ung</w>
Mar kt</w>
4 0</w>
vi el
iss en
da für</w>
k ur
st ei
li f
F unk
zur ück
an del</w>
rän k
aff en</w>
s al
Umwel t
sch ie
f a
level s</w>
el l</w>
soll en</w>
ord ini
Ab sch
ö chst
Strateg ie</w>
ge ments</w>
poin ts</w>
c apital</w>
chan ges</w>
k ti
objec tive</w>
i k
6 0</w>
tiv eness</w>
ilf e</w>
Ab schnitt</w>
es sion</w>
I P</w>
issu es</w>
G eg
sch utz
appro val</w>
impor ts</w>
sich erh
des cri
at er
y l
assi stance</w>
it al</w>
nach hal
Agen cy</w>
war ds</w>
Energi e
ra h
pro bl
ar ran
f ris
Dat en
enz en</w>
fahr zeu
S -
g ruppe</w>
ap az
fi eld</w>
e li
at ely</w>
Zeit raum</w>
t -
effec t</w>
dis c
g än
al tern
besteh t</w>
gen e</w>
k ed</w>
st ätig
st al
E F
kl ang</w>
Ver fü
gegeb en
en ing</w>
10 0</w>
ri ff
ci r
Her steller</w>
tn is</w>
z ung</w>
s es</w>
Ein klang</w>
k omm
gemein same</w>
einzel nen</w>
h r</w>
T echn
bei m</w>
gewähr leisten</w>
d om
qu anti
w ater</w>
li ght</w>
educ ation</w>
t ari
z er
th en</w>
sub mitted</w>
wies en</w>
pa yment</w>
ubli k</w>
Chin a</w>
pati ents</w>
bet ter</w>
su per
c all
Be k
E R
b ut
or gan
R ei
wh at</w>
Un ion
angem ess
pur pose</w>
di re
o ti
o w
ä m
E m
resul t</w>
e der
ko sten</w>
pur poses</w>
ö l
p ment</w>
tifi c
lini en</w>
hal t</w>
compli ance</w>
da bei</w>
eb ru
plac ed</w>
Ergebn isse</w>
st elle</w>
h öh
d -
gegen über</w>
F ebru
wor ks</w>
ob en</w>
fre e</w>
prüf ung</w>
Ver bin
st ing</w>
R es
sti mm
s ci
re si
w and
For tsch
voll ständi
Behand lung</w>
hin aus</w>
du stri
I V</w>
kon tro
an ts</w>
w ahr
ur ance</w>
ach st
ah r</w>
vis ion</w>
verwen det</w>
br ing
enti al</w>
ent schei
über sch
regi ons</w>
Ein zel
i cle</w>
gegeben enfalls</w>
ful l</w>
fu l</w>
me eting</w>
f est</w>
tr au
agre ements</w>
b order</w>
est ed</w>
G ruppe</w>
veh icle</w>
fer ner</w>
s ehr</w>
d ru
ra p
sieh e</w>
net work</w>
an g
meas ure</w>
N etz
ma ch
Än derungen</w>
politi k</w>
L age</w>
l auf
appli ed</w>
impro ve</w>
2 9</w>
j ur
al lo
del eg
exper i
l an</w>
pers on</w>
t or
sel b
poli tical</w>
re stric
t able</w>
ful ly</w>
L ändern</w>
d ro
P ol
min imum</w>
so wohl</w>
c la
j ähr
2 7</w>
aff ung</w>
Pro jek
manufac tur
supp ly</w>
Jun e</w>
a vi
ran k
Pro gramm</w>
geh t</w>
ren e
effec ts</w>
bil dung</w>
er sten</w>
or ts</w>
ch em
Jun i</w>
.. .</w>
ger n</w>
ati s
mö glichen</w>
verschied enen</w>
betroff enen</w>
lab our</w>
l s</w>
sozi alen</w>
Men schen</w>
p la
Tätig keiten</w>
cont ext</w>
allgem einen</w>
Jahr e</w>
qu i
k eits
g as</w>
wi r</w>
Ab kommen</w>
Bet rieb
f ar
2 6</w>
Beihilf e</w>
produc ers</w>
s c
uni k
W achst
del ines</w>
s eit
durch geführt</w>
limit ed</w>
b io
Rep ublic</w>
In dustri
For m</w>
bo dy</w>
investig ation</w>
ag es</w>
finan cing</w>
st en
Sch ul
201 7</w>
gui delines</w>
h äl
ci tiz
schaf tlichen</w>
ission s
is sions</w>
Parla ment</w>
re m</w>
di en</w>
o l</w>
individu al</w>
respon sible</w>
ec t</w>
l uss
Empf eh
Flu g
gu e</w>
fol ge</w>
Ver tre
8 0</w>
o wn</w>
st är
g ing</w>
form s</w>
ass er
provis ion</w>
Pro z
E E
ess es</w>
th s</w>
ma king</w>
h eb
o x
o m</w>
r o</w>
ein ige</w>
war d</w>
amen ded</w>
bo dies</w>
ge l</w>
Investi tionen</w>
R olle</w>
li k
Inform ations
cop e</w>
recommen d
oh l
An trag
gi gen</w>
ir e</w>
medi c
econom y</w>
a de
incre ased</w>
m et
ou gh</w>
par ty</w>
fi ed</w>
sol che</w>
govern ment</w>
techn ischen</w>
spo litik</w>
entsprech end</w>
continu e</w>
I C
se l</w>
zi ehen</w>
m us</w>
enth ält</w>
max imum</w>
An trag</w>
Janu ary</w>
m ut
politi schen</w>
adv an
d essen</w>
materi al</w>
sch eme</w>
ati c</w>
Janu ar</w>
im m
cre dit</w>
behör de</w>
port un
ier t</w>
equi pment</w>
Erzeugn isse</w>
wo bei</w>
mittel t</w>
a red</w>
fin den</w>
appro ved</w>
1 ,
regul atory</w>
z ahl</w>
ex change</w>
rä f
op portun
Ur spr
initi ative</w>
Zeit punkt</w>
da von</w>
der n
l l</w>
ann t</w>
ac ts</w>
ge ogra
t licher</w>
ger ung</w>
analy sis</w>
M il
ein ig
geänder t</w>
öh e</w>
a im
sich erungs
f ach
wel che</w>
pro ject</w>
Kre di
Sta aten</w>
infra structure</w>
ag ed</w>
9 6</w>
wirtschaf t</w>
In stitu
un abhängi
L änder</w>
custom s</w>
qual ifi
gro up
li gung</w>
wor l
anim al</w>
Nutz ung</w>
ämpf ung</w>
behör den</w>
contribu tion</w>
princip le</w>
K riterien</w>
ß t</w>
A s
ä t
sub si
comm er
d lichen</w>
speci al</w>
wer te</w>
ma cht</w>
de li
h ier
basi c</w>
elec tri
pro duk
facil it
co st</w>
propos als</w>
ein schlä
stoff e</w>
könn ten</w>
al i
In nov
Beschäf tig
h l
9 2</w>
perform ance</w>
Um f
A -
con nec
eh ol
di en
an other</w>
F ach
enthal ten</w>
c li
son sti
fi cation</w>
particul arly</w>
s cope</w>
de mo
pa y
forder t</w>
inten ded</w>
7 .
de u
ju di
P or
vorlieg enden</w>
staat liche</w>
K in
t ary</w>
yo u</w>
ta x
Z ul
ber ech
we gen</w>
ed ing</w>
ver age</w>
elek tron
be zieh
b au
h at
en nung</w>
over all</w>
erh in</w>
leist ung</w>
decisi ons</w>
We ise</w>
Möglich keit</w>
Berei chen</w>
w le
s an
s ure</w>
oblig ations</w>
geh ör
staat lichen</w>
rich t</w>
comp le
9 5</w>
specifi ed</w>
kt ur
lex i
consu mer</w>
zeich nung</w>
prüf t</w>
weit erhin</w>
m an</w>
Rep ublik</w>
to wards</w>
tain ed</w>
zw ar</w>
prin ci
dür fen</w>
unter schied
g l
zei chn
princi ples</w>
inclu ded</w>
7 5</w>
erforder lichen</w>
partn er
berücksich tigt</w>
Pro bl
gan gs
mp tion</w>
er klär
entr y</w>
Auff assung</w>
cer tific
car r
b are</w>
cro ss
An aly
L ös
s on</w>
cri min
neg oti
Ver trag</w>
vorges eh
erh öh
e ven</w>
M io
Maß nahme</w>
J us
l usses</w>
innov ation</w>
auf ge
H öhe</w>
re chen</w>
ti fy</w>
ti l</w>
s am</w>
ec tion</w>
ih nen</w>
oper ators</w>
en cour
verein bar
in s</w>
weit er</w>
Mio .</w>
Verpflich tungen</w>
Fä llen</w>
Ein führung</w>
we der</w>
c en</w>
St ru
ih rem</w>
Verein ig
Genehmig ung</w>
ins urance</w>
to ge
Fra gen</w>
bet ei
n u
exc e
regar ding</w>
ex pen
wirtschaf tliche</w>
p ol
Region en</w>
L e
tran si
al ity</w>
sec ond</w>
st or
Geschäf ts
Vor aus
f il
Interess e</w>
Hau p
s ing</w>
se par
2 5
ver ordnung</w>
hal b</w>
be cause</w>
Z us
ac tivity</w>
Leit linien</w>
ac ro
citiz ens</w>
ch ec
maj or</w>
author isation</w>
9 1</w>
le gen</w>
Einfuhr en</w>
th us</w>
provi des</w>
al low</w>
agricul tural</w>
er ei
fahr ens</w>
9 8</w>
anim als</w>
T ab
li sted</w>
Geb iet</w>
setz t</w>
erfü llt</w>
d ann</w>
bei den</w>
ex pres
toge ther</w>
sch er</w>
ver pflich
Gen er
sp ä
ar n
hel p</w>
di stri
k ri
re icht</w>
ein zu
Z iv
ili ties</w>
ess ential</w>
offi cial</w>
fest gelegten</w>
fin al</w>
um s</w>
verk ehr</w>
un til</w>
Syst em</w>
c ations</w>
Risi ko
ex port</w>
Ziv il
tu al</w>
ger ich
issu e</w>
sti ll</w>
ch il
ungs -</w>
si mil
wen iger</w>
Fra ge</w>
sch ein
7 0</w>
s onder
E -
S ach
as soci
sp ru
ver sch
o se</w>
I S
Verfü gung</w>
ic ul
oper ations</w>
Pre is
Organis ationen</w>
lan g
sicherh eit</w>
Vertrag spar
Pre sident</w>
Me hr
can not</w>
tiv en</w>
weit er
P ap
lieg t</w>
import ance</w>
wa ste</w>
o w</w>
Me tho
K l
setz en</w>
Verbrauch er</w>
Z eit</w>
Arz nei
centr al</w>
ma chen</w>
Kon z
evalu ation</w>
E N
d ge</w>
Partn er
si den
übersch reit
promo te</w>
c c
öffent liche</w>
arran gements</w>
mon ths</w>
Jul y</w>
för dern</w>
Jul i</w>
F und</w>
wh ol
ein heit
9 3</w>
L ist
rie b</w>
ch all
Vor schlä
consu mers</w>
un ver
cir c
group s</w>
stu dy</w>
alo gue</w>
s eit</w>
A B
d .</w>
com par
Betei lig
suffici ent</w>
sec tors</w>
fund ing</w>
d r
T ier
ut es</w>
ch s</w>
g .</w>
high er</w>
oper ating</w>
establish ing</w>
ger ech
p rä
sonder n</w>
2 -
benef it</w>
entsprech enden</w>
C C
veh ic
Überwach ung</w>
l ast</w>
aus zu
fish ing</w>
gelten den</w>
pub l
ad ju
fo re
List e</w>
com bin
rei ben</w>
äu ß
enter p
Rech nung</w>
al isier
g a
gesch lossen</w>
sit e</w>
exam ple</w>
particip ation</w>
h in</w>
a verage</w>
extern al</w>
bet rieb
Con vention</w>
diff icul
Beit rag</w>
under taking</w>
je der</w>
ade qu
ö ri
Fest legung</w>
de ten</w>
isp iel
re m
po wer</w>
vehic les</w>
instru ment</w>
author ised</w>
trä ch
si mp
geh öri
Techn ologi
8 7</w>
2 4
2 3
elec tron
lo ss
fol gt</w>
supp li
ques tion</w>
re ich</w>
rit ten</w>
work ers</w>
c ally</w>
benef its</w>
K M
Ein richtungen</w>
Ges ell
prüf en</w>
ad ded</w>
ß en</w>
su g
m ed</w>
E le
regi on</w>
invol ved</w>
ob ser
con duc
je de</w>
al lem</w>
ish ed</w>
as ing</w>
Mitgli eder</w>
need ed</w>
O c
Un ited</w>
Rah men
c ent
zw ec
ch o
a vo
ra di
g -
Wirtschaf t</w>
B au
co de</w>
eff orts</w>
char ac
er neu
ti c</w>
h is</w>
cross -
re main
Kontro lle</w>
o g
establish ment</w>
euro pä
zo gen</w>
St off
t as
vari ous</w>
c ated</w>
t ats
f lu
integr ation</w>
posi tive</w>
ab ly</w>
in spec
Arbeit sp
w eg
sm all</w>
der zeit</w>
en k
ar ing</w>
sto ff</w>
Über prüfung</w>
wich tig
st aus
Ber ücksich
zu gel
tats äch
es sion
b lo
wen den</w>
b lei
nutz en</w>
contrac t</w>
Z ahl</w>
en er</w>
Mitgliedsta ats</w>
gewähr t</w>
c y
verfü g
inde pen
te ten</w>
f all</w>
steh t</w>
no w</w>
ar anti
rech te</w>
w issen
ad ing</w>
gesam t</w>
st af
dec lar
ti vely</w>
sever al</w>
pro z
Gesund heits
cal cul
regul ations</w>
rel ation</w>
direc t</w>
Berücksich tigung</w>
A R
gleich zei
ei ther</w>
ä ssi
o ch
su cc
z usam
u ß</w>
as se</w>
in ed</w>
ob ach
re ment</w>
e vi
eb en
f unk
ag ing</w>
con sequ
ission en</w>
Sch affung</w>
be tra
zeich net</w>
exp ected</w>
En de</w>
e .
effici ency</w>
staf f</w>
pro por
provi ding</w>
Untersuch ung</w>
v ent
b ed</w>
ch er</w>
ex emp
Bo ard</w>
EG -
m ate</w>
er zeugn
consu mption</w>
d an
t in
em issions</w>
r ates</w>
d raft</w>
M är
s et
go od</w>
stell ten</w>
Mar ch</w>
establ ish</w>
au er</w>
gü l
setz ungen</w>
p ap
probl ems</w>
tic s</w>
em pf
A C
vorgesch la
recei ved</w>
kt o
nat ure</w>
Mär z</w>
S ti
T it
expen di
add ress</w>
ß en
worl d</w>
reduc tion</w>
fac t</w>
Sch utz
tion ing</w>
zun ehmen</w>
mo d
w in
In fra
N am
Er zeu
sub stances</w>
S ub
land s</w>
Sch iff
um e</w>
mäß ig</w>
ins gesamt</w>
anges ichts</w>
c ity</w>
mar k</w>
bar keit</w>
fall en</w>
th em
stand ard</w>
glob al</w>
G A
f onds</w>
arbeit en</w>
partn ers</w>
teil en</w>
at ten
zul egen</w>
Per son</w>
sh are</w>
bel ow</w>
under tak
pro gramm</w>
b on</w>
abil ität</w>
Aus fuhr
zusam men</w>
w a</w>
o p</w>
k g</w>
staus ch</w>
o k</w>
co ver</w>
gesam ten</w>
agre ed</w>
H ilfe</w>
unterstütz t</w>
T -
ris ks</w>
cont ent</w>
ter stat
trä gt</w>
3 5</w>
Her r</w>
I I
de b
Agen tur</w>
tig ten</w>
r ation</w>
fi ci
Rech te</w>
zi erungs
docu ments</w>
läu fi
com es</w>
Beit rit
Oc to
pro per
O kto
pos ed</w>
ad ap
Octo ber</w>
Ko ordini
m is
wa ys</w>
tion ed</w>
re duce</w>
H andel</w>
docu ment</w>
territ ory</w>
Wirtschafts zwei
k an
app e
pl ant</w>
comp ly</w>
pre vi
geb iet</w>
R au
Okto ber</w>
techn ische</w>
re form</w>
be züglich</w>
en tifi
ass ets</w>
ge fä
B r
amend ments</w>
di se
pa id</w>
nation ale</w>
op en</w>
vorges ehen</w>
lar ge</w>
j e</w>
st uf
etz en</w>
2 8
issu ed</w>
Bel gi
b it
Aussch usses</w>
au tom
ö k
Entwick lungs
3 4</w>
con fir
expendi ture</w>
electron ic</w>
en for
conc entr
c ement</w>
all er
ac e</w>
beit ra
a -
g rei
nat ural</w>
rech t</w>
mittl ung</w>
hand elt</w>
Bür ger</w>
k raft
develop ing</w>
aus reich
im mer</w>
f ten</w>
techn ology</w>
Fisch erei
ied ri
iden tified</w>
prac ti
me et</w>
j us
th ough</w>
Vertrag s</w>
di sp
o -
et wa</w>
simil ar</w>
ch ten</w>
ander er</w>
zuständi ge</w>
tu res</w>
guaran tee</w>
ens uring</w>
gre ater</w>
s ch</w>
zei gt</w>
bes t</w>
undertak ings</w>
z en
comp on
fu hr</w>
offi ce</w>
Bek ämpfung</w>
conclu ded</w>
Union s
Do ku
process ing</w>
x ed</w>
oper ational</w>
ger ä
R -
ün s
einschlä gigen</w>
Programm s</w>
wür den</w>
emplo y
ris es</w>
f ar</w>
lo k
e uro</w>
In di
be ein
orig in</w>
Pri or
re fl
ut ter
Komm unik
ph y
199 8</w>
consider s</w>
ne ten</w>
z .</w>
geb racht</w>
De ut
wär e</w>
D is
as pec
Ma i</w>
D ar
Auf gaben</w>
entifi c</w>
v öl
Ge währ
commer cial</w>
wh ere
An ti
W ieder
di alogue</w>
be hal
be grenz
imm t</w>
Arbeit en</w>
S .</w>
Kom p
gi ble</w>
detail ed</w>
L u
Proto k
Programm e</w>
re mo
sci entific</w>
res ol
amen ding</w>
Kontro ll
Di alo
Sch w
I F
contribu te</w>
ab ge
un de</w>
add res
b lem</w>
ger ungen</w>
b or
Fortsch ritte</w>
st ra
ten en</w>
G ef
ck s</w>
P ra
ur s</w>
we ist</w>
selb st</w>
leg t</w>
contrac ts</w>
kun ft</w>
I S</w>
sour cen</w>
prior ity</w>
h er</w>
al t</w>
P -
stän de</w>
g liche</w>
adop tion</w>
devel op</w>
sicher zustellen</w>
d rück
adop t</w>
Wettbewer b</w>
Beschäf tigung</w>
de vi
A S</w>
ap ter</w>
t an
po p
sp ra
effici ent</w>
ac qu
lin es</w>
reib ung</w>
on n
KM U</w>
i ve
ben e
geei gn
s weise</w>
h eu
Er wä
leist et</w>
bestimm t</w>
Finan zierung</w>
an der</w>
6 5</w>
ter t</w>
ell ing</w>
fo und</w>
Geb i
Pro du
Po litik</w>
h .</w>
Ch apter</w>
An wen
wei s</w>
jewei ligen</w>
tig keit</w>
Min dest
strukt ur</w>
trans fer</w>
e. g.</w>
sal es</w>
advan ta
f ying</w>
gi ve</w>
ier ten</w>
f rü
cor respon
Verkehr s
Ein richtung</w>
weit eren</w>
s us
in dem</w>
Handel s
aller dings</w>
unk te</w>
führ t</w>
pl ans</w>
ver öffentlich
lif e</w>
. e
materi als</w>
consi st
repor ting</w>
k o</w>
rene w
p rec
eh mens</w>
akt u
struc tural</w>
t ent</w>
comp ati
am ong</w>
sta k
er c
tur n</w>
industri al</w>
ell er</w>
pl ann
Verk ehr</w>
Vor sit
al le
kno wle
Por tu
prac tice</w>
vorgeseh enen</w>
tion sp
su chen</w>
Ein haltung</w>
re h
t a</w>
B em
b ra
Fol gen
Betei ligung</w>
requ ire</w>
s ach
cor rec
A spek
entsp richt</w>
Gesund heit</w>
m erk
f lexi
coord ination</w>
s einen</w>
h ät
pub lic
Gr enz
er weise</w>
charac ter
Umwel t</w>
Ger many</w>
applic ations</w>
ch te</w>
n iedri
Ar beit</w>
ver wal
de mon
Ab kommens</w>
M ob
li mit</w>
Ver hand
spezif ischen</w>
ow n
ungs an
Er fahr
F rei
Forsch ung</w>
Best and
Lebens mittel
Sta ats
3 1.</w>
beitra gen</w>
An sicht</w>
contain ing</w>
er möglichen</w>
st all
3 2</w>
us ly</w>
sam keit</w>
cl assi
or por
di gung</w>
ke in</w>
ol s</w>
Reg eln</w>
4 8</w>
au di
metho ds</w>
Zwec ke</w>
Deut sch
zi ert</w>
re placed</w>
3 6</w>
ch es</w>
I N
S ME
Kon sul
U N
da ys</w>
po wer
aus führ
p i
neu er</w>
h eld</w>
initi atives</w>
et ed</w>
L and</w>
schaf ts
N icht
mo di
consul tation</w>
Wirtschafts -</w>
steh enden</w>
entsp rechen</w>
Haup t
evi dence</w>
typ es</w>
ti ert</w>
W ar
besteh enden</w>
e th
tre ffen</w>
there of</w>
In tegr
en te</w>
is m</w>
di d</w>
ber ich
mö gen
unterstütz en</w>
orig in
develop ed</w>
geh end</w>
erg än
stat us</w>
ma k
amend ment</w>
er ungen</w>
2 9
t ext</w>
stu dies</w>
ber uf
a im</w>
i an</w>
äu fi
metho d</w>
zusätz liche</w>
rä ge</w>
f ail
an ten</w>
Verwal tung</w>
be ispiel
K apaz
8 9</w>
C har
gan gen</w>
beg rü
c ris
ing ly</w>
for men</w>
k a</w>
K raft
ter ung</w>
rei ber</w>
do se</w>
mit gli
n immt</w>
Forsch ungs
Rei he</w>
w om
nat ür
M al
er reicht</w>
im port</w>
circ um
S y
co l</w>
practi ces</w>
sich ts
E M
em a</w>
su cht</w>
stak ehol
ster ed</w>
E ur
up on</w>
Sch luss
syst em
G ü
demon str
u te</w>
ran ge</w>
ch t
prof ession
SME s</w>
wir ken</w>
entr al
lich es</w>
ari es</w>
erfü llen</w>
verbess ern</w>
seit s</w>
f am
par ts</w>
ü b
y our</w>
zu führen</w>
cris is</w>
eb enfalls</w>
men tioned</w>
sat zes</w>
pay ments</w>
sub stance</w>
implemen ted</w>
direc tly</w>
sch utz</w>
s atis
an genommen</w>
Kapit el</w>
experi ence</w>
lu s</w>
mehr ere</w>
A fri
ex erc
de p
notwendi g</w>
K ön
W ert</w>
repor ts</w>
fü gt</w>
sub st
syst eme</w>
zeit raum</w>
achie ve</w>
Stru ktur
ärk te</w>
F rau
3 3</w>
S lo
letz ten</w>
fass t</w>
E P
curr ently</w>
er reichen</w>
Wer t
Kön ig
disc us
m al</w>
äh n
Re fer
te st
re -
tra di
2 6
Reg ierung</w>
h or
subst anti
er leich
finanzi ellen</w>
St elle</w>
ah n
tur ing</w>
m al
Qual ität</w>
des halb</w>
Proto col</w>
sieh t</w>
person al</w>
con struc
en heit</w>
Her aus
komm t</w>
Ber at
lang fris
Sp an
Umf ang</w>
zi elt</w>
wä hl
ver ifi
besteh en</w>
nation aler</w>
E A
e vent</w>
Inter net</w>
an hand</w>
equi val
fä hi
Kapit al
m a</w>
N e
T S
4 5</w>
tr it
whol e</w>
us ers</w>
er war
vis ory</w>
determin ed</w>
ab sch
An nahme</w>
pl at
un mittel
9 7</w>
lik ely</w>
cla im
leist ungs
stimm ung</w>
por te
lon g-
reas ons</w>
vor läufi
K li
an erk
a in</w>
sch en
besonder s</w>
arbeit et</w>
er seits</w>
sch em
ro ad</w>
Vorschlä ge</w>
de pen
ver antwor
i ce</w>
applic ant</w>
F assung</w>
politi sche</w>
A d
h au
present ed</w>
gleichzei tig</w>
wi eder
le ad</w>
esti m
se ktor</w>
re pe
inter ests</w>
func tioning</w>
som it</w>
je des</w>
dump ing</w>
2 7
Er klär
201 8</w>
fü n
re struc
j ahr</w>
dar in</w>
ul g
bal ance</w>
con stitu
eg e</w>
ein ander</w>
B io
wi de</w>
k enn
R om
nam e</w>
beispiel sweise</w>
Pap er</w>
i ous</w>
Berich terstat
Produk te</w>
st eu
low er</w>
eg el
i ere</w>
han gs</w>
deci ded</w>
8 8</w>
partner ship</w>
p an
te i</w>
distri bu
ti schen</w>
fass ung</w>
Binnen markt</w>
al isierung</w>
ie fer
Zivil gesellschaft</w>
Betrieb s
Jus tice</w>
Kredi t
dienst e</w>
ge tro
K oh
Fr ance</w>
ma ß
Produk tions
bestimm ter</w>
con fi
Aus gaben</w>
res er
anti -
Besch lusses</w>
d ated</w>
Ak tiv
k in
f -
Wachst um</w>
e k</w>
me an
d y
m ess
ung s</w>
Ber eit
ol l</w>
Probl eme</w>
reich ung</w>
der zei
represent ative</w>
O J</w>
per at
S P</w>
Be zieh
competi tiveness</w>
institu tion</w>
Tab elle</w>
l ong</w>
förder t</w>
n ess</w>
Ver mögen
declar ation</w>
ar t</w>
J u
trans fer
achie ved</w>
Projek te</w>
ä uf
restruc turing</w>
ier ungs
cli mate</w>
ge wiesen</w>
au t</w>
so weit</w>
S pe
Deutsch land</w>
ti er
pre vent</w>
exc ep
adequ ate</w>
altern ative</w>
Bet rieb</w>
produc ed</w>
enti ty</w>
3 7</w>
ch ed</w>
st -
partn er</w>
aspec ts</w>
at z
in teg
AB l</w>
ro m
sel ben</w>
k räf
An hangs</w>
vi a</w>
equ al</w>
respon sibility</w>
me t</w>
oper ator</w>
acro ss</w>
knowle dge</w>
ent er</w>
völ k
be an
glei chen</w>
Aussch uß</w>
l en
cross- border</w>
mark eting</w>
pri or</w>
l er</w>
k at
olog ischen</w>
W eit
buil ding</w>
comp ens
respon se</w>
chall eng
spec ies</w>
Tätig keit</w>
facilit ate</w>
ex tent</w>
Grün den</w>
Drittl ändern</w>
Pf lan
ver ab
net works</w>
ateg ory</w>
impro ving</w>
ä d
integr ated</w>
wen det</w>
o ur
Ta g</w>
Geg en
lo ss</w>
f la
l et
sch ul
verkehr s
c ategory</w>
Analy se</w>
auf geführten</w>
h es
er lassen</w>
8 5</w>
ati v</w>
m l</w>
du ty</w>
An teil</w>
Se kt
gefä hr
sour ce</w>
Par teien</w>
con ver
L iefer
defini tion</w>
Um struktur
on en</w>
Schluss fol
bene fici
r e</w>
le a
k et
P R
ver bin
Reg uli
Zwec k</w>
c are</w>
g rün
trag ung</w>
ör per
ad ver
rech tlichen</w>
be lie
2 ,
Risi ken</w>
i ally</w>
pass eng
design ed</w>
berücksich tigen</w>
Beteilig ten</w>
r or
set ting</w>
f requ
eri es</w>
der og
associ ated</w>
Ber uf
el ements</w>
gewähr leistet</w>
valu es</w>
es pec
verb un
us es</w>
m men</w>
incre asing</w>
sch wer
espec ially</w>
men ten</w>
9 4</w>
8 .
ban k</w>
con form
for ward</w>
men sion</w>
ti v</w>
j ob
reas on
opportun ities</w>
electri city</w>
concern s</w>
rau ms</w>
n ungen</w>
D el
F alle</w>
f s</w>
te m</w>
Arbeit nehmer</w>
Flu gh
Er wer
a .</w>
et z</w>
publ ished</w>
An zahl</w>
p ro</w>
heb ung</w>
Empfeh lungen</w>
Mini ster</w>
integ ri
4 2</w>
o usly</w>
Wettbewerbs fähigkeit</w>
g ten</w>
at or
Reg ion</w>
la un
199 7</w>
Lu x
rech ts
ch en
fur ther
wom en</w>
Portu g
I M
enfor cement</w>
fest gestellt</w>
K ategor
allgem eine</w>
ein igen</w>
St eu
Bil dung</w>
- up</w>
repor ted</w>
certific ate</w>
bil ater
in ated</w>
enterp rises</w>
wich tig</w>
acc ession</w>
tra ff
schem es</w>
l ing</w>
c ol
pen sion</w>
i tion</w>
no tified</w>
eit e</w>
ih res</w>
fu gn
4 6</w>
x is</w>
U S</w>
Untern ehmen
sozi ale</w>
im medi
Kenn tnis</w>
adju st
technologi es</w>
.e .</w>
S A
imple ment</w>
to day</w>
ver sor
Vermögen s
rec ent</w>
Koordini erung</w>
on d
9 .
fäl le</w>
p t</w>
kon n
st euer
4 9</w>
streng th
F ran
europä ischer</w>
über mittelt</w>
C -
ter in
stoff en</w>
6 8</w>
fer ence</w>
Bed ar
recommend ations</w>
G leich
F u
s ehen</w>
agen da</w>
kom p
c s</w>
g o</w>
coun ter
oblig ation</w>
i .e.</w>
ati v
ologi cal</w>
stre ck
wesent lichen</w>
stell te</w>
k ul
in stall
prior ities</w>
geogra ph
spru ch</w>
h ab
proce ed
ge geben</w>
Voraus setzungen</w>
Her stellung</w>
distribu tion</w>
re cover
8 2</w>
finanzi elle</w>
ti l
t ru
Komm issions
be come</w>
ti eren</w>
erfol gt</w>
n t</w>
Ö ff
B ulg
further more</w>
Mob il
Bestimm ung</w>
Wirk ung</w>
al though</w>
ven u
cu s</w>
reduc ed</w>
ph s</w>
is tics</w>
Th ema</w>
inc orpor
gerich tet</w>
dom esti
stakehol ders</w>
se kt
p assung</w>
E ff
to x
EI B</w>
e ten</w>
long- term</w>
on nen</w>
n etz
Bulg ari
St at
w ing</w>
zu dem</w>
m and
be l</w>
sh or
kon z
domesti c</w>
guaran te
fund a
No twendi
ein geführt</w>
stän den</w>
Ar ten</w>
leit ung</w>
vor gelegt</w>
er ter</w>
indepen dent</w>
Entschei dungen</w>
är e</w>
hum an
3 9</w>
follow s</w>
end gül
requ ested</w>
no tification</w>
conclu sions</w>
li gt</w>
häl tn
Industri e</w>
su mm
si tion</w>
sta ge</w>
Frau en</w>
Untern ehmens</w>
b ieten</w>
c as
legisl ative</w>
administr ation</w>
W asser
Risi ko</w>
ger ing
trit t</w>
eli gible</w>
Notwendi gkeit</w>
sätz en</w>
rel ations</w>
stand ing</w>
Sch i
ar o
f te</w>
Portug al</w>
lan gu
spezif ische</w>
bei hilf
P h
M el
f our</w>
ar d
b an</w>
fish eries</w>
K rank
invest ments</w>
carr y</w>
4 3</w>
circum stances</w>
bed ing
negoti ations</w>
fin det</w>
H af
neg ative</w>
st ers</w>
Integr ation</w>
aussch uss</w>
rap porte
Ger icht
ge ber</w>
Eur at
out side</w>
h abe</w>
norm al</w>
pre judi
sk ill
B en
Ak tionsp
n isse</w>
is es</w>
op p
ive au</w>
besonder en</w>
amoun ts</w>
equival ent</w>
ss yst
trä gen</w>
A T
0 -
comp ared</w>
grenz überschreit
Initi ativen</w>
kon kre
N ieder
Ak te
geei g
Z entral
lä tz
D P</w>
D ef
Initi ative</w>
li ke</w>
As soci
stütz t</w>
st ung</w>
ber icht</w>
di st
W T
ur ch</w>
EE A</w>
mo del</w>
Tran s
challeng es</w>
bet riff
er st</w>
pos sibility</w>
no te</w>
Antrag steller</w>
Zul assung</w>
Zahl ungs
Beschäftig ungs
betriff t</w>
ein zi
Ber ech
region alen</w>
Aspek te</w>
An erk
W are</w>
etz t</w>
re main</w>
A T</w>
promo ting</w>
Fr ist</w>
sp iel
Associ ation</w>
ri ech
k rati
c at
clo se</w>
Instru mente</w>
z in
re in
sign ed</w>
wich tige</w>
competi tive</w>
dru ck</w>
bestimm ungen</w>
Syst eme</w>
job s</w>
pur ch
An lage</w>
Au g
vi er</w>
sol chen</w>
l ändern</w>
d ad
conform ity</w>
ser ious</w>
ac y</w>
ver ring
Investi tions
R o
c aus
di c
Aug ust</w>
fac e</w>
pl ying</w>
Direc tives</w>
hat te</w>
dad urch</w>
mäß ig
where as</w>
al ised</w>
O -
enti ties</w>
hand el
l ös
shi ps</w>
V ol
previ ous</w>
W or
geb i
cre ation</w>
Verpflich tung</w>
str ation</w>
targe t</w>
Refer enz
Organis ation</w>
be auf
Dienst e</w>
rec ord
dire k
Verbrauch er
heu te</w>
transpar ency</w>
un er
g as
mo re
dem and</w>
sion s
dis crimin
Febru ary</w>
E uro</w>
hy dro
s ent</w>
ord nungs
Febru ar</w>
hes ion</w>
more over</w>
fra ge</w>
expres sed</w>
län di
qu ot
T er
4 -
un it</w>
Kontro llen</w>
s äm
ungs verfahren</w>
produc er</w>
prejudi ce</w>
en able</w>
schließ en</w>
er ster</w>
E T
z one</w>
änder ungen</w>
sub mit</w>
z t</w>
Kli ma
p at
sch affen</w>
Wert pap
bro ad
führ er</w>
Gesell schaft</w>
dra wn</w>
busin esses</w>
wichtig sten</w>
wei ght</w>
Überein kommen</w>
isch es</w>
Auf trag
grei f
h ei
en di
wirk sam
rah men</w>
sat z
genehmig t</w>
entsprech ende</w>
wur f</w>
N at
be stätig
at eri
l it
paragra phs</w>
com ing</w>
limit s</w>
Ju gen
st ability</w>
pop ulation</w>
Bet rag</w>
en nen</w>
call s</w>
Mo d
Sch wer
x im
Eigen t
bess er</w>
0 1</w>
Pro je
lan s</w>
fe ed</w>
requi res</w>
j en
ah lung</w>
sti t
accoun ts</w>
om men
I s
g ruppen</w>
v ess
d ar</w>
Pre ise</w>
Vertragspar teien</w>
län der</w>
pa in</w>
e g</w>
de te</w>
rich tet</w>
Finan zierungs
Res sourcen</w>
re ach
N eu
Nam en</w>
S at
St ra
k ra
Po liti
an ces</w>
Möglich keiten</w>
h äufi
er er</w>
is mus</w>
vess els</w>
pra kti
Vereinbar ung</w>
in come</w>
Bezieh ungen</w>
in form</w>
in nen</w>
Vertre ter</w>
wei l</w>
O p
ü h
avo id</w>
no tes</w>
develop ments</w>
Her stell
c ategor
K ul
fi ve</w>
er ziel
a war
7 1</w>
än de</w>
descri bed</w>
bring ung</w>
co hesion</w>
ränk ungen</w>
wes en</w>
acc ep
ge f
Stoff e</w>
er ste</w>
veröffentlich t</w>
rän kt</w>
am m
f air</w>
rul e</w>
H och
represent atives</w>
funda mental</w>
akt oren</w>
vi r
H öchst
recogn ition</w>
vol ume</w>
commit ment</w>
en han
Zu ständi
Def ini
eb en</w>
la r</w>
al isation</w>
Anerk ennung</w>
Jah res
phy si
Me di
W el
iden tification</w>
o ff</w>
Lux em
al ien</w>
s ent
grund leg
Stu dien</w>
199 6</w>
den n</w>
W ähr
se a</w>
6 1</w>
wi der
h om
du ties</w>
kom men
supp le
An satz</w>
ver gleich
Weit er
we den</w>
o ther
v a</w>
tas ks</w>
An gebo
wi cht</w>
dr en</w>
des ign</w>
vorgeschla genen</w>
pri mar
indic ated</w>
stär ken</w>
lon ger</w>
bereit ung</w>
hal ten
i de
a si
Verbin dung</w>
oper ate</w>
Tran spar
3 8</w>
frei en</w>
Pri v
tem por
zul ässi
fo cus</w>
n ext</w>
proceed ings</w>
sel f</w>
internation ale</w>
E is
c raft</w>
ge macht</w>
com ments</w>
Be völk
auf genommen</w>
provis ion
go ing</w>
re li
b ish
betreff ende</w>
Erklär ung</w>
ge stellten</w>
fi xed</w>
An passung</w>
fu el</w>
chil dren</w>
Regel ungen</w>
5 4</w>
di ty</w>
mei sten</w>
recover y</w>
iz on
sor gen</w>
8 3</w>
innov ative</w>
on ce</w>
besch rieb
cre ate</w>
ra t</w>
C F
St ärk
Vereinig ten</w>
König reich</w>
Geb ieten</w>
erh ält</w>
m us
character istics</w>
yo ung</w>
Eurat om</w>
ol d</w>
am p
1 -
nachhal tige</w>
fün f</w>
mu ß</w>
i er</w>
wei ch
ass er</w>
l or
e very</w>
Stärk ung</w>
br auch</w>
le ch
for t
aro und</w>
ar gu
S ec
kri mini
require ment</w>
vor aus
mean ing</w>
l lung</w>
qu o
h öchst
te sts</w>
t abl
do m</w>
reh en
Grund sätze</w>
op tion</w>
cle arly</w>
K ing
v ation</w>
her vor
deut lich</w>
ob tained</w>
Am ts
simp li
A pp
inform ed</w>
bi li
Verhand lungen</w>
wi er
Nor men</w>
k ationen</w>
gen den</w>
manufactur er</w>
s st</w>
re f
st ep
ru s</w>
Ver gleich</w>
in n</w>
6 7</w>
5 5</w>
S pra
gel eit
Innov ation</w>
olog ische</w>
consi der</w>
in -
groß e</w>
g te</w>
ander em</w>
regel ung</w>
An n
V I</w>
den ts</w>
schaf tliche</w>
atten tion</w>
f lo
Berech nung</w>
2. 1</w>
l ack</w>
comp rehen
Ver sicherungs
K or
G aranti
a k</w>
Em issionen</w>
ange wand
Ver ring
ber u
an ia</w>
je dem</w>
199 5</w>
M u
V oll
Dar l
a y</w>
separ ate</w>
M s</w>
expor ting</w>
T yp
5 3</w>
G ro
o s</w>
rich ten</w>
le b
hol ding</w>
i ed</w>
subsi di
begrü ßt</w>
B ar
o il</w>
sy n
en ed</w>
rei fen</w>
E N</w>
King dom</w>
au sch
ei ch
pre -
ex pos
throu gh
origin ating</w>
Mon aten</w>
recogn ised</w>
H al
cont act</w>
in e
vers ity</w>
categor ies</w>
1. 1</w>
rapporte ur</w>
10 7</w>
0 .
Del eg
si a</w>
Ital y</w>
lich t</w>
L auf
f ill
mo vement</w>
7 3</w>
Aus nahme</w>
dise ase</w>
Arbeitsp lätz
er ing</w>
trans actions</w>
hi er</w>
strateg ic</w>
Vor haben</w>
U SA</w>
call ed</w>
Dialo g</w>
Ver antwor
durch schnit
compl ete</w>
Bedar f</w>
wh ose</w>
H oh
ph ar
n icht
mig ht</w>
Au ßen
gen cy</w>
Drit t
expos ure</w>
et wa
ph ase</w>
5 2</w>
k einen</w>
Überwach ungs
compens ation</w>
human it
oh n
j ust</w>
Produk tion</w>
exp lo
gan z</w>
rit t</w>
sub sequ
contrac ting</w>
F utter
und s</w>
con f
W ahr
gra mmen</w>
4 4</w>
er zeu
En d
w ed</w>
Z er
schrif t</w>
op tim
verpflich tet</w>
zu folge</w>
7 7</w>
Leist ungs
S O
K raft</w>
umfass t</w>
bess ere</w>
m ale</w>
einig ung</w>
Men schen
fore ign</w>
r ural</w>
pro hi
fer enz</w>
d aten</w>
fü llung</w>
M r
sol ution</w>
Bereit stellung</w>
auß erhalb</w>
fin ance</w>
ange wendet</w>
E S</w>
ver fahrens</w>
n er
sti eg</w>
Verring erung</w>
tra ding</w>
m ann
tim men</w>
cul tural</w>
fac tors</w>
h ält</w>
introduc tion</w>
in en</w>
geeign ete</w>
ver tre
do ch</w>
ver fol
t fer
sh of</w>
H y
Erwä gungs
mar g
F onds</w>
ac compan
angemess ene</w>
Z B</w>
mat ter</w>
d liche</w>
re turn</w>
mechanis m</w>
I T
or ity</w>
lü sse</w>
gehör en</w>
through out</w>
mig ration</w>
7 2</w>
compati ble</w>
regi stration</w>
la ying</w>
re venu
S en
Schlussfol gerungen</w>
un less</w>
e p</w>
R A
ho ch
behand elt</w>
sonsti ge</w>
Hoh eits
ro ati
resul ting</w>
v ei
ein gesch
ass ess</w>
erzeugn isse</w>
initi al</w>
bi et
or d</w>
M ess
sich er</w>
är en</w>
ab zu
Z iff
U kra
respec tive</w>
gen er</w>
ti sche</w>
6 6</w>
re al</w>
Sach ver
verab schie
demo c
struc tures</w>
spo liti
Richtlini en</w>
lä sst</w>
ab or
an s
cour se</w>
Absch luss</w>
gr ant</w>
mo bility</w>
li gh
an z</w>
Gener al
ör ung</w>
ge prüft</w>
Zu kunft</w>
gesch äf
kun f
groß en</w>
ier te</w>
test ens</w>
ür f
bl at
Sta at</w>
gu t</w>
ho hen</w>
no t
spä testens</w>
An lagen</w>
Sch luss</w>
wä l
Syst ems</w>
ü bri
ab ilities</w>
budge tary</w>
lie fer
prepar ation</w>
Bezu gs
Sit uation</w>
em er
lin ked</w>
Lös ung</w>
S onder
profession al</w>
p il
con soli
kre ich</w>
sonsti gen</w>
an stal
stell ungen</w>
le arn
inclu des</w>
resol ution</w>
9 9</w>
betreff end</w>
Auf sichts
t ete</w>
contri but
introduc ed</w>
commit ments</w>
sta aten</w>
Ver sch
R ent
vollständi g</w>
Fran kreich</w>
ent ri
oll s</w>
ar ity</w>
medic inal</w>
5 9</w>
St abil
Sec re
Stellung nahmen</w>
regi stered</w>
ach ten</w>
gen utz
proc u
c ell
l auf</w>
Land wirtschaft</w>
beein träch
indic ators</w>
rif f</w>
stor age</w>
calcul ated</w>
5 7</w>
EF T
n is</w>
dec re
S er
ent weder</w>
suppor ting</w>
ge stal
entwick elt</w>
Heraus forderungen</w>
contro ll
wier ig
aff ected</w>
wi eder</w>
ta il</w>
me at</w>
z y
Gebi ete</w>
4 7</w>
erfol gen</w>
ven ts</w>
gro und</w>
H ar
ver lan
mu ch</w>
Di re
bet on
Arznei mittel</w>
ment ary</w>
comprehen sive</w>
Folgen des</w>
Fol gen</w>
Ger ä
d ou
mittel s</w>
di um</w>
Men gen</w>
exerc ise</w>
e arly</w>
o th
k oh
8 1</w>
N eben
sei en</w>
tre ated</w>
ben ö
ver ur
Transpar enz</w>
Prior itäten</w>
Ein satz</w>
pla y</w>
Stu die</w>
Con ference</w>
An gabe</w>
en h
Comm ission
aus schließlich</w>
ärk ten</w>
construc tion</w>
Be ur
er läu
ap plying</w>
effec tiveness</w>
vei ll
correspon ding</w>
K ar
veill ance</w>
exc ept</w>
M ateri
F ern
Jah res</w>
vor zu
b ran
bili ties</w>
5 1</w>
skill s</w>
ve ments</w>
sit u
no ted</w>
tak es</w>
Gel d
sur veillance</w>
acc ept
Wirk samkeit</w>
l en</w>
M an
res t</w>
viel e</w>
K an
concer n</w>
je den</w>
ab s
forder ung</w>
Sit zung</w>
consider ation</w>
ap poin
7 4</w>
di enen</w>
z e
Unternehmen s
Ergebn is</w>
un besch
f lä
air port</w>
ye t</w>
al ia</w>
dra w</w>
wer de</w>
regul ar</w>
ec e</w>
vol un
Vereinbar ungen</w>
ju d
Ver sor
regi ster</w>
angem essen</w>
e ar
streng then</w>
jen igen</w>
op ening</w>
d rin
I P
erleich tern</w>
govern ance</w>
lü ss
bil dungs
ver hin
2 .</w>
2. 2</w>
inf lu
stat t
betreff en</w>
kat oren</w>
ätz ung</w>
n ing</w>
8 6</w>
ver si
der ar
fi l</w>
ak tionen</w>
si ze</w>
Öff ent
mat ters</w>
ec ting</w>
contro ls</w>
stat ement</w>
ein gesetzt</w>
Energi e</w>
ban ks</w>
Ital ien</w>
i time</w>
7 6</w>
per cent
targe ts</w>
er möglich
S or
propor tion
gen t</w>
inspec tion</w>
ach e</w>
G ruppen</w>
zus etzen</w>
it able</w>
procu rement</w>
pack age</w>
n it
Euro -
för derung</w>
In kraft
Artik eln</w>
sp rün
Auf nahme</w>
agricul ture</w>
si bilities</w>
Or t</w>
7 8</w>
Unter lagen</w>
m ic
o ften</w>
Vertrag s
1. 2</w>
A gr
L is
m ac
5 8</w>
str ong</w>
determin e</w>
com b
F ang
appli es</w>
Technologi en</w>
An hän
iden ti
Her r
w ise</w>
4 0
sho wn</w>
vis ed</w>
iden tify</w>
E R</w>
lich ung</w>
ri ffen</w>
ste p</w>
dienst leistungen</w>
dig ital</w>
trans mission</w>
de bt</w>
br ing</w>
stär kt</w>
ach tet</w>
tä tig</w>
G DP</w>
gen ommen
ak te</w>
Be fugn
M erk
genann te</w>
Produ kt
a det</w>
Ges etz
programm s</w>
ur sprün
Eis en
ten ance</w>
sc ale</w>
cl ini
d lich</w>
be ziehen</w>
deb ate</w>
zu ge
Reguli erungs
h aber</w>
L iss
b ahn
4 1</w>
Urspr ung</w>
it self</w>
ic ally</w>
derzei tigen</w>
main tenance</w>
Men ge</w>
E L
häl tnis</w>
exam ination</w>
kno wn</w>
la ws</w>
st eri
sp i
inter ested</w>
connec tion</w>
streng ungen</w>
breit ung</w>
h ere</w>
über greif
Erfahr ungen</w>
Agr ar
sp ace</w>
u tions</w>
nah me
aff ect</w>
c am
Lis bon</w>
w ettbewer
kl in
ass enen</w>
aim s</w>
EW R-
gan genen</w>
mar itime</w>
accep ted</w>
Ukra ine</w>
suppor ted</w>
consist ent</w>
Liss ab
7 9</w>
f as
proper ty</w>
er zielt</w>
An spruch</w>
an gebo
lat er
Überein kommens</w>
mechanis ms</w>
emplo ye
S C
zw eiten</w>
pres sure</w>
a di
encour age</w>
blei ben</w>
ver mei
centr e</w>
unmittel bar</w>
E D
ann ten</w>
E ing
kunf ts
traff ic</w>
oc c
er teilt</w>
dy nam
entwick lung</w>
contribu tions</w>
über tragen</w>
Gewähr leistung</w>
I den
quanti ties</w>
gesell schaften</w>
, 5</w>
EC B</w>
mut ual</w>
K op
be deu
O ber
conclu sion</w>
o d
N C
ein richtungen</w>
en ge</w>
chec ks</w>
F lü
pa y</w>
comp la
et c</w>
T iere</w>
R at
Fä hig
fac ilities</w>
n ieder
bo ur
exp la
M än
er ed</w>
to ok</w>
compon ents</w>
I -
func tion</w>
allo cation</w>
unbesch adet</w>
gen d</w>
gemein schaftlichen</w>
L iz
er y</w>
recommen ded</w>
iss es</w>
R us
l ed</w>
el ten</w>
rich tlini
Gemeinschaf t
F äl
recommend ation</w>
dig it
t ätig
st res
t ations</w>
rec ital</w>
impro ved</w>
7 -
Entwick lungen</w>
exce ed</w>
zusätz lichen</w>
l am
199 4</w>
do c
provision al</w>
Er d
u ally</w>
su res</w>
s einem</w>
For um</w>
Berei che</w>
ge plan
process es</w>
u res</w>
wierig keiten</w>
auf zu
s aid</w>
unabhängi g</w>
main tain</w>
Sch ad
Ein sch
Re is
te sting</w>
über wach
Empfeh lung</w>
S M
Stand punkt</w>
Infra struktur
accord ingly</w>
W ege</w>
3. 1</w>
on es</w>
Inter essen</w>
Er füllung</w>
ü ck</w>
organis ed</w>
l ater</w>
z ungen</w>
T ats
b ack</w>
vie ws</w>
ab kommen</w>
per man
f ron
verk auf
cal c
reduc ing</w>
h ist
con tain</w>
gen ce</w>
Se ktor</w>
spe ed</w>
Ver fahrens</w>
wer t
be trag</w>
to -
schla gs</w>
dar an</w>
Defini tion</w>
gegen sei
wel t
be obach
gemein sam</w>
B -
gleich s
Ver trau
übri gen</w>
fra gen</w>
pro blem</w>
6 2</w>
Ab sätze</w>
et ings</w>
stärk er</w>
air craft</w>
mann er</w>
succ ess
bu ch</w>
entschei den
a res</w>
mehr eren</w>
deleg ated</w>
zi erten</w>
exper ts</w>
bo o
fahr t
m ing</w>
V iel
it ation</w>
aim ed</w>
b s</w>
appro xim
schlä gt</w>
p ul
mä ch
can di
me etings</w>
Di en
star t</w>
reg im
z .
Qual itäts
M ig
Ver öffentlich
30 .</w>
S pain</w>
K ern
künf tigen</w>
max im
sol cher</w>
ß e</w>
w asser
gesetz ten</w>
f ehl
zun ehmen
er setzt</w>
N -
verschied ene</w>
Mil li
confir med</w>
izi enz</w>
fä llen</w>
rech ts</w>
Fahrzeu ge</w>
F ri
5 -
umfass en</w>
Anwen dungs
mil k</w>
k apaz
tain ing</w>
S T
Or gan
v es
l ut
super visory</w>
a ge
F ehl
Dienst leistungs
step s</w>
promo tion</w>
por ts</w>
continu ed</w>
signifi can
F er
in jur
Pre siden
Gr und</w>
l li
verbun denen</w>
Er weit
6 4</w>
W eb
ermöglich t</w>
significan tly</w>
getro ffen</w>
geh oben</w>
i r</w>
ühr en</w>
ch tet</w>
er geben</w>
li ge</w>
sel y</w>
Ge w
wi eg
20 0</w>
a gi
ve terin
bei ge
ih m</w>
deci de</w>
Au stri
Flugh af
di gen</w>
soli di
Ziff er</w>
pre vention</w>
gehöri gen</w>
bestätig t</w>
un its</w>
min im
as su
geograph ical</w>
we b
de fi
tig te</w>
ü sse</w>
percent age</w>
accoun ting</w>
f ish</w>
s ale</w>
ein deu
sam pl
auß er</w>
abs ence</w>
hät te</w>
strateg ie</w>
addres sed</w>
R oh
beg rün
n äch
statisti cs</w>
relev anten</w>
W o
ei genen</w>
power s</w>
Än der
cre di
cer tain
er st
Öffent lichkeit</w>
i de</w>
c el
in tra
ge fördert</w>
strength ening</w>
es si
5 6</w>
f le
F am
Gro ß
allow ed</w>
An rei
T ur
verfü gen</w>
er stat
Z wei
Fach gruppe</w>
hor izon
ak tion</w>
lä ssi
learn ing</w>
I C</w>
Au stausch</w>
An h
äf en</w>
ke i</w>
inc en
discus sion</w>
B a
ur en</w>
Gre en</w>
behal f</w>
gen der</w>
let ter</w>
secur ities</w>
fi el
ber n</w>
calc ulation</w>
n ummer</w>
eg u
b ly</w>
K unden</w>
R and
tari at</w>
möglich erweise</w>
Sti ch
detail s</w>
ei gen
Geg enst
en -
be y
z ep
verein bar</w>
Sch wierigkeiten</w>
Buchst aben</w>
Gre ece</w>
Er n
advanta ge</w>
An strengungen</w>
inv esti
effec tively</w>
estim ated</w>
ari an</w>
Be obach
au dit</w>
verwen den</w>
el e
Vor teile</w>
derog ation</w>
ra ther</w>
o t</w>
organis ationen</w>
coll ection</w>
0 8</w>
di versity</w>
conduc t</w>
geogra f
co- operation</w>
Fam ili
vorgesch lagen</w>
bey ond</w>
sich erung</w>
plan ts</w>
ag g
ere i</w>
saf egu
vol l</w>
off er</w>
biet et</w>
Beg üns
Tran sp
z ö
z. B.</w>
ges und
Zus atz
an wen
äh ri
tatsäch lich</w>
ec tive</w>
Funk tion
f an
schie de</w>
Wirtschaf t
bil lion</w>
en lar
stand s</w>
region ale</w>
d on
Grund satz</w>
201 9</w>
tem perat
kt ur</w>
B i
Ver arbeitung</w>
en des</w>
bar ri
erheb lich</w>
markt es</w>
zu gr
ge m</w>
Priv at
on g
substanti al</w>
contain ed</w>
tempor ary</w>
contain s</w>
Metho de</w>
ho sp
prac tical</w>
pre pa
c ru
maj ority</w>
en land</w>
G u
EU V</w>
entwick eln</w>
transpar ent</w>
P unkt</w>
Verantwor tung</w>
sch luss</w>
descri ption</w>
bar er</w>
t t
unver züglich</w>
wirk ung</w>
jewei ls</w>
gan gs</w>
bal d</w>
ul e</w>
constitu te</w>
sh e
im posed</w>
Hoheits gebiet</w>
fahrzeu ge</w>
dire kt</w>
priv aten</w>
b ase</w>
ge stützt</w>
be deut
combin ation</w>
f ran
Umwel tsch
Aktiv itäten</w>
WT O</w>
exemp tion</w>
fo c
Ein fuhr</w>
Beruf s
ac tual</w>
jähr lichen</w>
vor genommen</w>
verfüg baren</w>
em ission</w>
verifi cation</w>
Mon ate</w>
B IP</w>
tax ation</w>
um p
A c
w o</w>
i ck
st ated</w>
0 5</w>
tion ellen</w>
3. 2</w>
eff ek
auf geführt</w>
bezieh ung</w>
zi p
folgen der</w>
Commission er</w>
poten zi
fin ally</w>
V i
recei ve</w>
Presiden cy</w>
h aus
i k</w>
and s</w>
Mitgli ed</w>
B as
au stausch</w>
um gesetzt</w>
U N</w>
gesch affen</w>
verbess ert</w>
erneu er
gegen wär
zu g
k apit
inf rin
Sch en
lich keiten</w>
form al</w>
id ance</w>
gener ally</w>
bezo genen</w>
ther ap
wel tw
wirk lichung</w>
sp re
M et
aus genommen</w>
G riech
mäß igen</w>
it ary</w>
si x</w>
Bem üh
n ü
fam ily</w>
sch ä
lab or
ech an
Re form</w>
Span ien</w>
remain s</w>
gi ge</w>
kontro lli
di spo
chem ical</w>
An twor
k s
S ek
E st
to ur
bezo gen</w>
b ack
L ini
d au
sto ck</w>
orig inal</w>
employ ed</w>
Leist ungen</w>
zu gän
E ZB</w>
S u
harmon isier
wel comes</w>
be trägt</w>
me an</w>
fre i</w>
geleit et</w>
ed s</w>
di ss
Urspr ungs
tl ed</w>
Vorsit z
enn t</w>
le di
6 9</w>
men sch
re di
4. 2</w>
isp iel</w>
Tei le</w>
Ver wirklichung</w>
änder ung</w>
ko ordini
Aus w
zugel assen</w>
unter such
l y
clo sure</w>
u men</w>
p le
bewer tung</w>
B al
ord nungen</w>
sh ares</w>
D -
re forms</w>
co her
St raf
hol der</w>
wirk same</w>
G eh
main ly</w>
blat t</w>
K at
stat t</w>
fest zulegen</w>
rel and</w>
ast ro
10 .
clini cal</w>
condi tion</w>
Bemüh ungen</w>
con stit
multi later
nu clear</w>
M A</w>
ent ru
g ar
is on</w>
w ord
Ban k
empf ohl
adjust ment</w>
Herr n</w>
We g</w>
Aus rü
Dat um</w>
assess ed</w>
Überein stimmung</w>
e ver</w>
Be ispiel</w>
über mitteln</w>
möglich keiten</w>
ne l</w>
stand ar
ten zi
communic ations</w>
angewand t</w>
k us
C S
Gegenst and</w>
le ment</w>
jähr lich</w>
M echan
ange geben</w>
y cl
F ren
cur ren
differ ences</w>
1 2.
D ru
renew able</w>
Europ as</w>
s ett
metho d
de tec
lo ans</w>
w n
air s</w>
sit es</w>
Teil en</w>
difficul t</w>
v in
k or
ho use</w>
I A
sch w
kur z
impro vement</w>
L A
um s
För der
Spe zi
genutz t</w>
opportun ity</w>
se chs</w>
immedi ately</w>
fir ms</w>
angemess enen</w>
vermei den</w>
provi ders</w>
bi eter</w>
Commun ities</w>
F lä
e vents</w>
App endi
verb unden</w>
technologi cal</w>
d auer</w>
Tats ache</w>
Pflan zen
nu n</w>
Über gangs
ger t</w>
V AT</w>
plann ing</w>
ch in
j ün
I reland</w>
nah m</w>
follow ed</w>
Bil dungs
inter pre
Besch reibung</w>
nehm ern</w>
t onn
Aus bildung</w>
gen de</w>
beg inn
mic ro
Ziel en</w>
z ös
versor gung</w>
tifi zierung</w>
repe al
mö gliche</w>
Fren ch</w>
inter vention</w>
be hin
design ated</w>
blo od</w>
medi a</w>
Beitrit ts
199 3</w>
c a</w>
en heiten</w>
zugr unde</w>
w at
j ah
Kom bin
t ative</w>
quanti ty</w>
vorgesch rieb
stan den</w>
Ver wen
Mittel n</w>
gesam te</w>
j ähri
f e</w>
S ank
phar mac
näch sten</w>
inten si
Fra u</w>
ir y</w>
8 4</w>
mi um</w>
edo m</w>
institu tional</w>
ar ten</w>
Zahl ungen</w>
zuständi g</w>
sh ort</w>
invol ving</w>
5 00</w>
der t</w>
J ap
vi c
Ann ex
li z
ph en
fü r
inclu sion</w>
steh end</w>
Me er
Bes it
H inter
fre edom</w>
opini ons</w>
Metho den</w>
conf lic
nachhal tigen</w>
dump ing
jus tified</w>
bur g</w>
es ischen</w>
ten der</w>
sel ves</w>
drück lich</w>
Durchführungs verordnung</w>
pro fi
in jec
Z ins
Anti dumping
au t
Qual ifi
län e</w>
restric tions</w>
Stich pro
P A</w>
wach s
tari ff</w>
lich ten</w>
agen cies</w>
wissen schaftlichen</w>
statisti cal</w>
claim s</w>
sol utions</w>
s em
indi rec
exten ded</w>
ledi glich</w>
anwen d
harmon ised</w>
häufi g</w>
w .</w>
f alt</w>
beton t</w>
teil weise</w>
av our</w>
P lat
re al
no tice</w>
sen si
Erweit erung</w>
199 2</w>
Ver breitung</w>
L ag
er mittelt</w>
anti- dumping</w>
lat est</w>
m es</w>
el ess</w>
other wise</w>
Sch reiben</w>
erg reifen</w>
W est
Erzeugn issen</w>
ch ing</w>
3 -
al ität</w>
re au</w>
wirk sam</w>
s ets</w>
frü h
Auf enthal
Annex es</w>
Sachver ständi
P C
tig es</w>
rech tliche</w>
monit or</w>
bek annt</w>
high -
Mobil ität</w>
un sten</w>
acc es
Rech ts</w>
ra il
lüss el
Teil nahme</w>
C om
Sekt oren</w>
Akte ure</w>
S al
anzu wenden</w>
in struc
Ein beziehung</w>
y ed</w>
tn isse</w>
compl eted</w>
to o</w>
kul tu
I r
W erte</w>
Gericht shof</w>
la w
um -
r und</w>
medi cal</w>
be zeichnet</w>
stätig keit</w>
A EUV</w>
to ols</w>
s er</w>
ök onom
off en
F aktoren</w>
trans action</w>
d one</w>
ord in
betei ligt</w>
us w.</w>
zi eren</w>
unter liegen</w>
S ü
Kon zentr
prof it</w>
ut h</w>
Rech nungs
Infra struktur</w>
ad s</w>
st echn
fo rese
Darl ehen</w>
gener ation</w>
Untern ehm
re ach</w>
fass en</w>
enter ed</w>
wer b
industri e</w>
Politi k
person en
Th emen</w>
Ko sten
Konz ept</w>
po ver
Er suchen</w>
ff s</w>
beauf trag
unter sucht</w>
ö pf
f is
V R</w>
ten den</w>
mo dern
territ ori
pre fer
ter en</w>
Tit le</w>
Sch ä
se bene</w>
Instru ment</w>
t z</w>
particip ating</w>
w indi
d ritten</w>
Eisen bahn
ter ror
Stell ung</w>
y p</w>
län dlichen</w>
auf zunehmen</w>
sub -
erheb liche</w>
V -
ab sich
an te</w>
Prüf ungen</w>
Strateg ien</w>
in folge</w>
dur ation</w>
an forderungen</w>
ier ungen</w>
P lan
govern ing</w>
ek s</w>
Har mon
them selves</w>
gu te</w>
Partner schaft</w>
crimin al</w>
ati vely</w>
protec t</w>
Re gel</w>
avi ation</w>
rel ation
lau b
B ran
elektron ischen</w>
lic ence</w>
Beg inn</w>
Bet reiber</w>
0 3</w>
Ver hältnis</w>
säm tliche</w>
M ärkte</w>
Fäl le</w>
op tions</w>
us er</w>
de gre
incorpor ated</w>
so on</w>
Verk auf
tur en</w>
lu tion</w>
deli ver
betrieb en</w>
ho he</w>
O R
li ber
w ine</w>
O s</w>
fran zös
vorläufi gen</w>
genann t</w>
An träge</w>
F o
k ung</w>
einzel staatlichen</w>
Gef ahr</w>
li g</w>
a qu
ges t</w>
Er mittlung</w>
sel f-
indic ate</w>
p unkte</w>
tiv ität</w>
V II</w>
ungs maßnahmen</w>
f r
ho urs</w>
konn te</w>
an schließ
Institu tionen</w>
Wirtschaftszwei gs</w>
Beur teilung</w>
Fahrzeu g
ur ban</w>
di mension</w>
M ein
U K</w>
passeng er</w>
produk te</w>
mitgli edsta
ne u</w>
ausreich end</w>
1. 3</w>
thre sh
ter ran
Protok olls</w>
sam ple</w>
lin ed</w>
oll en</w>
al es</w>
St and</w>
I R
L an
iz ation</w>
or t
ten s</w>
en abl
Griech enland</w>
einheit lichen</w>
fo li
concentr ation</w>
St rom
sch o
ra w</w>
z eh
pover ty</w>
un ser
strateg ies</w>
am bi
rä ger</w>
D em
bewer tet</w>
ing -
A ff
our n
st at</w>
t ex
Funktion ieren</w>
mo del
difficul ties</w>
In tern
in ter</w>
at ure</w>
Au di
besch lossen</w>
notwendi gen</w>
inter medi
emer gency</w>
6 3</w>
perman ent</w>
Pra xis</w>
erklär t</w>
Ent wurf</w>
custom ers</w>
gro unds</w>
combin ed</w>
J ourn
aussch usses</w>
4. 1</w>
öß e</w>
requ ests</w>
Ne ther
t op
reas on</w>
A S
Eff izienz</w>
F la
at ta
ra il</w>
do ku
instru mente</w>
ves sel</w>
g sten</w>
mon th</w>
aktu alisier
sicher gestellt</w>
künf tige</w>
allo cated</w>
her r
K ü
rie be</w>
bedeu tet</w>
e y</w>
k ation</w>
Mittel me
Inv est
bau en</w>
In halt</w>
Wertpap ier
reach ed</w>
Ver lu
Ele kt
v acc
Unter schiede</w>
CO 2</w>
kl ar
iden tifi
un employment</w>
ge halten</w>
primar y</w>
hältn is
Kon ferenz</w>
super vision</w>
Bu reau</w>
2. 3</w>
char ges</w>
Bevölk erung</w>
con ven
re ck
mäß ige</w>
grenz en</w>
le ading</w>
eng ine</w>
zei gen</w>
car bon</w>
ab ol
Nether lands</w>
weit e</w>
zug unsten</w>
- based</w>
H ol
k al
men ge</w>
fahr ens
Spezi fi
e dern</w>
il s</w>
Grund verordnung</w>
her gestellt</w>
Veröffentlich ung</w>
umm ern</w>
cla im</w>
ser ies</w>
man ag
expor ts</w>
carr ying</w>
p lus</w>
mel dung</w>
Bür ger
kti ken</w>
m ass</w>
fail ure</w>
Kon form
Auf gabe</w>
erhöh en</w>
li ve</w>
Grün de</w>
discrimin ation</w>
fill ed</w>
m erg
invol vement</w>
Berichterstat ter</w>
protec ted</w>
EG- Vertrag</w>
stat tung</w>
Inkraft treten</w>
adver se</w>
ati schen</w>
heal th
plann ed</w>
M i
langu age</w>
Po sition</w>
Kategor ie</w>
H ung
Aff airs</w>
unterschied lichen</w>
Maß gabe</w>
Z y
et ary</w>
perio ds</w>
Arz t</w>
Auf bau</w>
sa chen</w>
Er höh
Staats an
inter oper
der i
s eines</w>
devi ces</w>
Konsul t
utz ung</w>
inn er
enh ance</w>
f ru
exten sion</w>
mp tom
Arbeits lo
t ment</w>
er stellt</w>
dar stellen</w>
spra che</w>
Verein fach
Prä sident</w>
ver stärk
Pol and</w>
d ort</w>
sto cks</w>
As sozi
mo bi
berech net</w>
be halten</w>
vi ce</w>
injur y</w>
consequ ently</w>
l as
Zul ass
B lut
b and</w>
richtlini e</w>
reason able</w>
konz entri
Untersuch ungen</w>
Gel tungs
sug ar</w>
r as
geb aut</w>
geh enden</w>
W asser</w>
gesch ütz
z äh
n ö
kräf te</w>
blei bt</w>
Bed ürf
verkehr s</w>
I L
jo b</w>
0 7</w>
prepa red</w>
über prüft</w>
lok alen</w>
lauf enden</w>
an lagen</w>
tu red</w>
frei wil
compon ent</w>
k m</w>
b ir
sur ve
employe es</w>
gesch loss
c all</w>
isch en
ak zep
nü pf
l ass</w>
Medi terran
4. 4</w>
Vertragspar tei</w>
her e
cer tification</w>
lo an</w>
jec ted</w>
Dis kus
Beg riff
ziel e</w>
be st
a er
durch zuführen</w>
möglich st</w>
eli min
Schiff e</w>
Stand ards</w>
Empf än
sec ond
Do sis</w>
Vor bereitung</w>
off ici
größ ere</w>
ab sol
W h
In verkehr
Kon ta
ter e</w>
y an
in ser
über mittel
s eh
Tit el</w>
E B
under taken</w>
sho w</w>
plac ing</w>
doc tor</w>
Mediterran ean</w>
ti n</w>
mo bil
hand eln</w>
Erwägungs grund</w>
guarante es</w>
bur den</w>
f el
0 2</w>
de x</w>
anges ehen</w>
ste el</w>
ti s
gu idance</w>
vor liegen</w>
betra chtet</w>
be vor</w>
m iss
proz ess</w>
revenu e</w>
public ation</w>
ger ei
Luft fahrt
be absich
ex ec
di stor
T F
wahr schein
a x
wettbewer bs
la red</w>
l ac
regel mäßig</w>
Protok oll</w>
zusätz lich</w>
y l</w>
trag s</w>
wich tigen</w>
F le
no tify</w>
mobi le</w>
it ems</w>
er ör
D auer</w>
specifi cations</w>
certific ates</w>
Prä si
CO 2-
dür fte</w>
volun tary</w>
F ühr
qu ar
Kl ein
n äm
A N
Inform ation</w>
Konsul tation</w>
Aus arbeitung</w>
Wel t
inter essi
D eb
g aranti
Kommunik ation</w>
judi cial</w>
pres er
Nieder lan
ne ben</w>
co des</w>
Mr d.</w>
näm lich</w>
Appendi x</w>
on line</w>
der iv
F inn
achie ving</w>
tra gt</w>
classi fication</w>
char ge</w>
conduc ted</w>
tim es</w>
nach dem</w>
eben so</w>
physi cal</w>
L at
ab geschlossen</w>
form er</w>
ange geb
form ul
K ohl
func tions</w>
behand lung</w>
particip ate</w>
sch inen</w>
berei che</w>
ver län
3 ,
pro jek
ac ting</w>
N R
ge zogen</w>
effizi enz</w>
be ur
el ement</w>
Ein w
O n
Em issions
u tive</w>
gran ting</w>
transi tional</w>
er wä
0 4</w>
Fol ge</w>
kapit al
tiv er</w>
ist an</w>
be währ
ha z
Se e
O b
Merk male</w>
A sy
vi ol
qu e</w>
H ilf
vor hand
O ption</w>
anerk annt</w>
h ö
benefici ary</w>
Belgi um</w>
lo g
Über tragung</w>
bei de</w>
bo t</w>
gel an
Chin ese</w>
del ay</w>
G i
tri eb
li ability</w>
er -
em ar
wirtschaf tlicher</w>
coord in
in ts</w>
finan ced</w>
wir kt</w>
ander erseits</w>
he ading</w>
Erhöh ung</w>
B ru
Markt an
Lebens mittel</w>
ig ht</w>
G o
us e
jur isti
Pre is</w>
b ür
Aktionsp lan</w>
Ein nahmen</w>
wach st
verwen deten</w>
leb ens
tro tz</w>
hom e</w>
Ger ich
avi g
weis ung</w>
em ed</w>
obser ved</w>
Pro blem</w>
unter richtet</w>
fac tor</w>
T ag
ass em
re ly</w>
z oll
cl ass</w>
accompan ied</w>
veterin ary</w>
particip ants</w>
gehör t</w>
wer ten</w>
höchst ens</w>
is en</w>
fis cal</w>
ver s</w>
vo c
organ ic</w>
fin dings</w>
ent rep
Proje kt</w>
pro per</w>
ün sch
Hin dern
ic s</w>
tel li
region aler</w>
Wirtschaftszwei g</w>
ber eit</w>
wei gh
Bet räge</w>
TS I</w>
f low</w>
de ad
i fy</w>
gen ü
zi erte</w>
rin zi
am eter</w>
besch äf
re k
dra w
G as
li qu
eri gen</w>
far mers</w>
zahl ungen</w>
l ass
Milli onen</w>
sel ected</w>
pro du
g ar</w>
vor ran
etz ung</w>
ati ver</w>
bish er</w>
as ked</w>
pres ence</w>
H ei
p ast</w>
ke ep</w>
ti s</w>
en ds</w>
Wh ite</w>
he ad</w>
Geb äu
st ac
sel s</w>
t on
Lös ungen</w>
d est</w>
O EC
quo te</w>
Fahrzeu g</w>
lab elling</w>
hau p
ro ll
sho ws</w>
sch ung</w>
ge wicht</w>
t ell
T ra
Kenn zeichnung</w>
star k</w>
Gemeinschaf ten</w>
regim e</w>
pro spec
loss es</w>
cover ing</w>
ec ts</w>
sp rü
sec tor
en ergi
end or
En g
ch lor
not ably</w>
diss em
fa vo
S E</w>
W issen
s al</w>
isti c</w>
ru ption</w>
k riterien</w>
vollständi ge</w>
typ e-
l t</w>
F I
fiel ds</w>
eff ort</w>
v o</w>
Proz ent
ell en
ab ges
Komp et
3 00</w>
perform ed</w>
he ad
f low
verhin dern</w>
Journ al</w>
internation aler</w>
des p
ach es</w>
Kombin ation</w>
oth ers</w>
ein g</w>
belie ves</w>
Meer es
elektron ische</w>
hol ders</w>
sch ed
Deb at
ac ci
clo sely</w>
Un i
ob wohl</w>
h af
caus ed</w>
desp ite</w>
15 .</w>
f avour</w>
Mal ta</w>
üb ung</w>
ann t
ques tions</w>
ei tigung</w>
defi c
lin k</w>
iz ed</w>
f it
land s
G ra
ver änder
f al
erläu tert</w>
Anh örung</w>
besteh ende</w>
Indi katoren</w>
Fisch erei</w>
einheit liche</w>
ausführ enden</w>
cor por
out h</w>
tonn es</w>
lich em</w>
W i
Ver träge</w>
N O
sug ge
qual ität</w>
ge zahl
ho h
o vis
er sch
subsequ ent</w>
finanzi ert</w>
g keits
ac id</w>
grow ing</w>
a den</w>
pen al
mak es</w>
k lar</w>
Reg i
Ak ti
R in
R um
ließ en</w>
Konz ep
er enden</w>
n iveau</w>
Her z
ein mal</w>
v it
mon ey</w>
3. 3</w>
transi tion</w>
K al
barri ers</w>
entrep rene
ti erung</w>
lic ences</w>
dec kt</w>
cre ating</w>
un s</w>
t ory</w>
Gewähr ung</w>
st ly</w>
zei chen</w>
än ge</w>
resi dence</w>
cho ice</w>
d ates</w>
bilater al</w>
pro duce</w>
0 6</w>
satis fac
Zahl en</w>
ver treten</w>
A L
besch ränkt</w>
Sozial partner</w>
intern en</w>
Arbeitsplätz e</w>
at trac
sp an
Ba sis</w>
Austri a</w>
bet reiber</w>
facil ity</w>
Vor lage</w>
so und</w>
Typ genehmig
w are</w>
An pass
Auf hebung</w>
la y</w>
enti tled</w>
Er teilung</w>
v il
chan ged</w>
n or</w>
benefici aries</w>
vor zulegen</w>
exam ined</w>
uni form</w>
ec k
Aus gangs
An stieg</w>
i um</w>
Lini e</w>
we ch
Verk auf</w>
ati sche</w>
ver sicherungs
ti k
situ ations</w>
lat ter</w>
le t</w>
zer r
re llen</w>
dep lo
CA P</w>
measu red</w>
jud g
vor schlag</w>
Zu g
sch ar
y outh</w>
in stance</w>
geh ende</w>
exist ence</w>
hät ten</w>
A ut
degre e</w>
invest ors</w>
A D
Ver änderungen</w>
wat ers</w>
N G
pres ents</w>
val i
geleg te</w>
T ür
Dire kt
ad vice</w>
Über mittlung</w>
um welt
sustain ability</w>
Ban ken</w>
über prüfen</w>
ge halt</w>
Jap an</w>
unk ten</w>
r a</w>
er weit
ent stehen</w>
W ei
it ing</w>
Aus bau</w>
er fasst</w>
e asi
D en
confi den
be sten</w>
Euro stat</w>
ori enti
saf e</w>
re a</w>
bour g</w>
äuf e</w>
W elt</w>
kre di
cas h</w>
devi ce</w>
Person al</w>
mo tor</w>
commit ted</w>
po l</w>
Reg ist
G H
tel ec
mi x
ari o</w>
certain ty</w>
Viel falt</w>
199 0</w>
nation als</w>
spiel en</w>
Br enn
ver brauch
A .
z ed</w>
con fer
f air
re vised</w>
off ic
Stra ßen
bal an
regel n</w>
an ge</w>
vor über
th in
par alle
um ul
or ies</w>
paralle l</w>
dam age</w>
Sy n
al ities</w>
deli very</w>
candi date</w>
Beihilf e
Vor teil</w>
m ien</w>
ver lässi
ex trac
po st
ung sh
audi ovis
acqu isi
Pol en</w>
avail ability</w>
Ö ster
P al
Vol ks
ar ising</w>
i ken</w>
it em</w>
de emed</w>
jur is
k ür
g ain
sel ection</w>
juris dic
fu sion</w>
ban king</w>
Ak tionen</w>
0 9</w>
medi zin
al itäten</w>
f ang</w>
enlar gement</w>
grund lage</w>
Region al
wi der</w>
St atisti
bre ak
g ab
Harmon isierung</w>
mü s
ge tr
gew öh
cre ated</w>
eg elt</w>
Kin der</w>
Ver fahrens
in telli
be träch
anzu geben</w>
Aus übung</w>
bei zu
Ger icht</w>
Sch ritt</w>
Proz ess</w>
lo cated</w>
consi gn
umfass ende</w>
Re formen</w>
Zu ck
dies el
be f
pl as
str ä
men gen</w>
fä llt</w>
under standing</w>
genommen en</w>
d ged</w>
propos es</w>
zus ehen</w>
e x</w>
T e
re du
manufactur ing</w>
H or
rou ght</w>
Bes eitigung</w>
success ful</w>
stri chen</w>
sp rech
endgül tigen</w>
controll ed</w>
Beitrit t</w>
B ra
su itable</w>
Erzeu gung</w>
n ung
specifi cally</w>
quot a</w>
Rom ania</w>
refl ect</w>
geeig neten</w>
al tung</w>
Rum än
si erung</w>
fu els</w>
Vermögens werte</w>
Ver ab
V is
Sch wei
H um
Direc tor</w>
tenzi al</w>
den den</w>
off ered</w>
Her kunfts
Besch ränkungen</w>
il leg
I K
l eng
gen au
oc cu
Inverkehr bringen</w>
en vis
Rechts akte</w>
Beit räge</w>
awar eness</w>
s sel</w>
ch ain</w>
f ast</w>
hier zu</w>
T age</w>
recei ving</w>
zw eit
hat ten</w>
erneu t</w>
ach t</w>
F il
rä sent
unterschied liche</w>
Ph ase</w>
Sch lüssel
st ück
li qui
teil s</w>
laun ched</w>
zw eite</w>
ta ge</w>
sicher stellen</w>
fi g
fahr t</w>
K un
consequ ences</w>
C R
determin ation</w>
ag no
transp or
gewöh n
Sch la
mit ge
b st
Kommunik ations
ge stat
Ta gen</w>
ehl t</w>
Berich te</w>
curren cy</w>
ob stac
an wenden</w>
chil d</w>
n den</w>
ap s</w>
mark ts</w>
M ol
c e
maß geb
schein t</w>
ob tain</w>
M and
re ign
as yl
tu ally</w>
democ rati
Währ ungs
qual it
li es</w>
cul ture</w>
ausge wähl
Ab fall
zeich nen</w>
t inu
y ers</w>
v ul
Vor schlags</w>
T A
Aus bildungs
s ession</w>
Ab wick
suppor ts</w>
verur sach
disc uss
se en</w>
as set</w>
fol glich</w>
Vereinfach ung</w>
T sch
Begüns tigten</w>
wär en</w>
ab weich
respon sibilities</w>
5. 1</w>
isch em</w>
dec lared</w>
1 50</w>
E reign
ur able</w>
con ser
pres cri
ut er</w>
fahrzeu gen</w>
fe w</w>
1. 4</w>
erh af
fl ü
regul ated</w>
fi ehlt</w>
mach ung</w>
mon etary</w>
geführ te</w>
N ationen</w>
n om
pol lution</w>
on ia</w>
fähi gen</w>
K rise</w>
bereit gestellt</w>
medi um</w>
besch luss</w>
s lo
asyl um</w>
nach stehend</w>
ein erseits</w>
W ech
ränk ung</w>
a de</w>
high ly</w>
f t
wer k
Schul d
erfol gre
on going</w>
men ted</w>
re tail</w>
pf lan
se kre
present ation</w>
Ver län
Nach weis</w>
Belgi en</w>
in ge</w>
Nat ur
Industri e
reib ungs
gra du
rail way</w>
Ein leitung</w>
Arbeits markt</w>
suffici ently</w>
en ken</w>
emp fiehlt</w>
P P
lo cation</w>
gen au</w>
Maß e</w>
c are
zu g</w>
Er stellung</w>
Gr enzen</w>
sh are
N et
Wor tl
R u
individu als</w>
wesent liche</w>
Beh in
pass t</w>
clo sed</w>
bor ders</w>
exce eding</w>
cent res</w>
ti ef
impor ted</w>
Koh ä
Hoch schul
verring ern</w>
harmon isation</w>
erg riffen</w>
th ing</w>
frequ ency</w>
si vely</w>
tifi k
Mar k
un s
ko sten
exam ine</w>
fest gesetzt</w>
process ed</w>
her vor</w>
vorgeschla gene</w>
g keiten</w>
j etzt</w>
ful fil</w>
Leb en</w>
sol d</w>
4. 3</w>
relation ship</w>
rän ken</w>
per mit</w>
bil den</w>
bet ru
ein gerei
govern ments</w>
atis ch</w>
äch st</w>
zun ächst</w>
ch tung</w>
Ko oper
F eder
le ar
Verein ten</w>
n issen</w>
fi ght</w>
e hr
Z ei
P il
dec ken</w>
cru cial</w>
Aus druck</w>
ut ting</w>
ben ach
S weden</w>
Luxem bourg</w>
verlan gen</w>
ge wich
il legal</w>
si gkeit</w>
erzeugn issen</w>
di vi
S el
M O</w>
consider able</w>
con tr
sh aring</w>
Finanz hilf
Ge wä
hal f</w>
Ch em
da ily</w>
staat licher</w>
transp o
ho ch</w>
öffent licher</w>
Ger man</w>
m ärkte</w>
IS O</w>
erhöh t</w>
em m
T elek
f rau
do wn
prohi b
allow ing</w>
6 -
me th
ver trau
Sank tionen</w>
D än
po st</w>
geeig net</w>
beihilf en</w>
remain ing</w>
Br us
auf treten</w>
Stu di
s ser
enthal tenen</w>
bess eren</w>
Aus fuhr</w>
ali en
di ent</w>
marg in</w>
C ha
Nach frage</w>
w ritten</w>
respec tively</w>
m or
c tions</w>
vor behal
zugel assenen</w>
defini ert</w>
bes ei
Ver ordnungen</w>
sol ven
hal te</w>
hän gt</w>
gen eti
N ahr
con cre
Den mark</w>
verfü gt</w>
stän d
mo der
lauf en</w>
flexi bility</w>
alle in</w>
wh y</w>
EU R
coll ected</w>
po st-
et te</w>
te sted</w>
differ ence</w>
detail li
bin ding</w>
be für
sp ann
N etz</w>
er öff
Dän emar
dar unter</w>
haup ts
St unden</w>
excep tion</w>
A M
Ir land</w>
W ohn
summ ary</w>
r ing</w>
siden ten</w>
S a
um t</w>
Um ständen</w>
fi z
dien sten</w>
T ieren</w>
I mm
modi fied</w>
gem el
viel en</w>
T reib
ini gung</w>
Aus gleichs
al ways</w>
T onnen</w>
stell ungs
K ri
passeng ers</w>
L it
n s</w>
haupts äch
1. 5</w>
ai l</w>
fall ing</w>
o gen
Institu te</w>
Regi stri
ländi schen</w>
ben en</w>
B rü
wahrschein lich</w>
hist or
temperat ure</w>
V III</w>
ol er
chec k</w>
ur red</w>
Bulgari a</w>
ätz e</w>
standar dis
w and</w>
me in</w>
ir ing</w>
be finden</w>
ac tors</w>
bil ität</w>
Mini sters</w>
Be zeichnung</w>
Durch setzung</w>
tatsäch lichen</w>
finanzi erung</w>
zentr ale</w>
durch geführten</w>
val id</w>
mu t</w>
Er bringung</w>
Ele mente</w>
P len
main tained</w>
T R
Kapaz itäten</w>
K örper
ben ch
Ab lauf</w>
ge tragen</w>
G et
untern ehm
ther n</w>
rit t
Er fol
d .
tfer tigt</w>
St uf
cy cle</w>
y er</w>
web site</w>
equ ity</w>
min dest</w>
lä ss
wich tiger</w>
zu mindest</w>
TF EU</w>
medic ines</w>
am e
I AS</w>
Voraus setzung</w>
t ac
Bed enken</w>
PR C</w>
dar stellt</w>
I ra
b as
Brus sels</w>
ul y</w>
opp el
sec ure</w>
kontro lle</w>
b rought</w>
ter i
schie den</w>
amen d</w>
b y-
etwa ige</w>
cl ar
V er</w>
k ar
Er reichung</w>
manufactur ers</w>
tra vel</w>
zur ück</w>
es sive</w>
5. 2</w>
Fest stellung</w>
rein for
F rü
Leist ung</w>
purch ase</w>
Pro grammen</w>
bro ad</w>
tig ungs
a gen</w>
Di mension</w>
War en
Ver b
s mo
m acro
nam ely</w>
lin ks</w>
Nach hal
nach zu
funk tion
E ast
gra ph
dispo sal</w>
bring t</w>
exclu ded</w>
discus sions</w>
G ut
Arbeitsp lat
compar able</w>
techn ischer</w>
Be am
mar ks</w>
lig ten</w>
zeichn ungen</w>
mö chte</w>
A mer
concre te</w>
leich t</w>
tra k
c ei
h as
enterp rise</w>
Inform ation
b ru
flow s</w>
pp ed</w>
be zü
Rus sia</w>
Debat te</w>
beding t</w>
st am
geb il
tic ally</w>
lo o
G est
Öster reich</w>
su m</w>
determin ing</w>
classi fied</w>
Kredit institu
ES MA</w>
Amer ic
Z ahlung</w>
propor tion</w>
ge werb
dise ases</w>
2. 4</w>
r ating</w>
tas k</w>
verfüg bar</w>
vi el</w>
uns ere</w>
Er forder
ne ver
demo krati
unabhängi gen</w>
Schwer punkt</w>
v ine</w>
distri but
acc ur
zentr alen</w>
medic ine</w>
lin e-
th eless</w>
Agen da</w>
gleich wer
never theless</w>
land wirtschaftlichen</w>
K ris
sch on</w>
S P
injec tion</w>
Ver halten
sec tions</w>
be mü
kon solidi
De fiz
Produk ten</w>
Wi der
f tw
Intern et
I F</w>
Fähig keit</w>
egel ung</w>
Co des</w>
lu ß</w>
dat ab
tour ism</w>
S eite</w>
dis krimini
Mitgli edern</w>
n ehmen
rah mens</w>
Mil ch
m b
grenzüberschreit enden</w>
ver arbeit
bezieh t</w>
an no
posi tions</w>
Mini steri
st abil
Wortl aut</w>
Bestand teil</w>
star ting</w>
n ommen</w>
ban ken</w>
Ex per
vor gelegten</w>
s n
manufac ture</w>
comple x</w>
analy se</w>
ze ch</w>
l ying</w>
Tur key</w>
bezo gene</w>
C zech</w>
begrenz t</w>
ut ed</w>
O ff
tradi tional</w>
gi ving</w>
exclu sion</w>
wirtschaf tlich</w>
Web site</w>
chall enge</w>
S ol
de par
ftw are</w>
steu er</w>
Lan des</w>
M ärkten</w>
Kategor ien</w>
en der
Entwick l
ex ist</w>
Eigen schaften</w>
h ü
di schar
Ver s
sett lement</w>
ran ts</w>
St ad
breit e</w>
St ei
an z
rele ase</w>
mar ine</w>
EU- Ebene</w>
clar ifi
invol ve</w>
So uth</w>
w ell
Binnen marktes</w>
eindeu tig</w>
uro pä
Anwendungs bereich</w>
vereinbar ung</w>
ff t</w>
transi t</w>
zahl reich
in ci
hauptsäch lich</w>
corpor ate</w>
East ern</w>
s eg
umfass enden</w>
f luss</w>
C han
tin gen
ergän z
Stand ard
No t
Steu ern</w>
method ology</w>
koh är
gen u
ung spolitik</w>
tä t</w>
sub mission</w>
aus wirken</w>
e di
Versor gungs
wirksam en</w>
ke pt</w>
Doku ment</w>
compet ence</w>
Bewer tungs
fi gu
indi cation</w>
ra ised</w>
p assen</w>
einge halten</w>
Tsch ech
j ahr
om en
coll ective</w>
wer ts</w>
P a
conc ept</w>
ger en</w>
ri c</w>
Ex ec
ut r
Rau m</w>
regi stri
Exec utive</w>
Zuständi gkeit</w>
Le hr
industri es</w>
Amts blatt</w>
hand ling</w>
cri tical</w>
rem uner
Zus timm
For t
c ast
199 1</w>
St abilität</w>
up dated</w>
pre ise</w>
auf gehoben</w>
derar tige</w>
provi der</w>
Änder ungsan
quot as</w>
zwec k
grund sätz
W ahl
e ous</w>
Dis krimini
kt u
acquisi tion</w>
inc urred</w>
di e
ange passt</w>
figu res</w>
sho fs</w>
g barkeit</w>
her ein
grenz e</w>
be fu
ein geleitet</w>
m in</w>
ein bezogen</w>
gleich e</w>
sector al</w>
Be förderung</w>
approxim ately</w>
Verlän gerung</w>
weltw eit</w>
po ul
dar gelegt</w>
all ge
vor legen</w>
und es
sampl ing</w>
aufge fordert</w>
bek räf
w us
dar aus</w>
ak ul
accept able</w>
C H
handel s
4 ,
ver stärkt</w>
sekt or
incen tives</w>
ergän zt</w>
rech t
infrin gement</w>
cover s</w>
Stat us</w>
Ver zeichn
ann te</w>
defic it</w>
erwä h
euro pa
über ein
re d
w ollen</w>
fam ili
c ore</w>
an gs
Gel eg
zeit raums</w>
discuss ed</w>
ä ure</w>
D ump
geplan ten</w>
ten e</w>
Ab stimmung</w>
pre vent
docu mentation</w>
Kul tur
schaf t
jurisdic tion</w>
gemeinsam er</w>
zugän glich</w>
wesent lich</w>
N A
G al
cri me</w>
Untersuch ungs
measu rement</w>
democrati c</w>
Ver pack
K ur
mäßig keit</w>
Tür kei</w>
z ahlung</w>
ör ungen</w>
proportion ate</w>
fo rec
E valu
ra cy</w>
reich end</w>
occu p
For men</w>
form at</w>
adv ance</w>
ch ron
20 .</w>
fir m</w>
EFT A</w>
dom in
ho us
am eri
exclu ding</w>
Grün dung</w>
intro duce</w>
exten d</w>
follow -up</w>
st ausch
Zustimm ung</w>
R S</w>
herein after</w>
def ence</w>
fol low</w>
Teil nehmer</w>
inde ed</w>
200 7-
erforder liche</w>
ex tre
Kooper ations
zulässi g</w>
ro h
mand ate</w>
ven tions
inv ited</w>
suppli ers</w>
Ausw ahl</w>
schla gen</w>
un zu
ter s
erforder t</w>
konn ten</w>
we eks</w>
d ation</w>
Ab fälle</w>
enk ung</w>
H e
Sch ritte</w>
w ünsch
m om
A K
oper ation
ein gerichtet</w>
So li
gerech t</w>
kin d</w>
Stichpro be</w>
wirtschaf t
t ob
vorbehal tlich</w>
On line-
Kl asse</w>
er gebn
bet rieb</w>
fe es</w>
der selben</w>
beein fl
re fer</w>
u t</w>
Stru ktur</w>
en ding</w>
par ent</w>
lös ung</w>
bezo gener</w>
r at
allge mein</w>
multi -
verantwor tlich</w>
here by</w>
gi g</w>
konkre te</w>
8 -
Aus nah
rech ter
An geleg
angegeb enen</w>
li ving</w>
regel ungen</w>
betra cht</w>
An betracht</w>
f li
schaf tlicher</w>
An bieter</w>
so bald</w>
ru p
rinzi p</w>
gerä te</w>
Co de</w>
rec ycl
medi um-
pack aging</w>
ak tive</w>
Ab schnit
französ ischen</w>
1 1.
er ende</w>
Er haltung</w>
targe ted</w>
n ern</w>
f light</w>
Inter oper
t le</w>
be stand</w>
humanit arian</w>
out come</w>
re vie
Hinter grund</w>
rati o</w>
sur face</w>
Ausfuhr en</w>
strukt u
un ion</w>
ar z
Koh är
rap id</w>
Netz e</w>
Mo dern
Auff or
Sch weden</w>
Nam e</w>
ad ul
flexi ble</w>
M ik
herr sch
betru g</w>
expla ined</w>
no wle
de al</w>
Dien st</w>
spru ch
gelten d</w>
coord inated</w>
Neben wirkungen</w>
type- approval</w>
el er
kom b
bit te</w>
interoper ability</w>
Spezifi kationen</w>
gebi ete</w>
ad a</w>
ätz ungen</w>
allow s</w>
Ad visory</w>
Pf lichten</w>
F requ
th al
T o
Haushal t</w>
install ation</w>
Fin land</w>
stat ements</w>
Grund sätzen</w>
Komp on
man gel
favo urable</w>
C roati
ass ist</w>
EC U</w>
prepar e</w>
G ed
sekt ors</w>
N iveau</w>
ähn liche</w>
use ful</w>
su m
größ ten</w>
Produ kt</w>
ack nowle
unter breit
komb ini
CF SP</w>
lä uf
grundleg enden</w>
Wo chen</w>
ho st</w>
ing u
Nach bar
ergi bt</w>
wal t</w>
vul ner
er b
Menschen rechte</w>
S S
g ungen</w>
fi x
ein richtung</w>
be ha
agg reg
leng th</w>
metho den</w>
soli dar
natür lichen</w>
integri erten</w>
P s</w>
Audi tors</w>
acqu is</w>
ti ous</w>
Besch lüsse</w>
Tag ung</w>
id ation</w>
go s
stu ffs</w>
empfohl en</w>
P at
ag t</w>
hous ehol
berei chen</w>
Sit z</w>
imp acts</w>
bes it
R i
di gt</w>
ras ch</w>
ess e</w>
dis closure</w>
Ko so
L a
Hung ary</w>
aus gestellt</w>
s av
assem bly</w>
Kohär enz</w>
tig ungen</w>
C an
hin gewiesen</w>
Ital ian</w>
record ed</w>
ver brauch</w>
ausge wo
la ys</w>
Pra ktiken</w>
Ma ß</w>
B ri
durch führen</w>
verabschie det</w>
associ ations</w>
Über nahme</w>
re present</w>
am s</w>
struktur en</w>
c e-
S i
T och
ho l</w>
h il
P ack
it alien
dau erhaf
sch wi
confi dence</w>
stres sed</w>
For m
Euro pol</w>
pro m
GA SP</w>
conser vation</w>
sion en</w>
go als</w>
k am</w>
erheb lichen</w>
em al
omm unik
pol y
E T</w>
4 14</w>
plat form</w>
comple tion</w>
re st
ungsp lan</w>
Sit zungen</w>
Funk tions
einzi gen</w>
ün sti
F lexi
impro vements</w>
ö l</w>
han den</w>
deri ved</w>
par at
schließ t</w>
issu ing</w>
Partn er</w>
Rumän ien</w>
stei gen</w>
sh er
For derungen</w>
C ar
re vision</w>
Slo ven
aut onom
Slo v
tox ic
In jek
Angebo t</w>
sti mul
qualifi ed</w>
I mpf
ti se</w>
spoliti schen</w>
Dänemar k</w>
Einzel heiten</w>
under lying</w>
weiter er</w>
Kin dern</w>
mil itary</w>
beschrieb enen</w>
G lo
langfris tige</w>
An la
sh e</w>
klin ischen</w>
führ te</w>
it är
in a</w>
ge k
au shal
wa chen</w>
2. 5</w>
Mit arbeit
Über trag
ear li
um n</w>
b at
Uni vers
et ten</w>
fin d</w>
W erk
fig ure</w>
S em
compar ison</w>
kapaz ität</w>
er lau
Bem erk
G -
poten ti
effizi ente</w>
vis i
betei ligen</w>
W issen</w>
sav ings</w>
M utter
su red</w>
Op tionen</w>
an gebracht</w>
deleg ation</w>
speci fy</w>
16 .</w>
0 000</w>
aus gesetzt</w>
Bet racht</w>
erziel en</w>
28 .</w>
r un
för m
sever e</w>
wer tung</w>
O ri
Zu sch
beeinträch tigen</w>
langu ages</w>
uni vers
T ex
connec ted</w>
appoin ted</w>
In spek
sam m
techn i
lieg enden</w>
em perat
Ge or
anschließ end</w>
it als</w>
inspec tions</w>
ast ung</w>
betroff ene</w>
produc tivity</w>
with draw
gran ts</w>
er tes</w>
Telek ommunik
vor handen</w>
transfer red</w>
agre e</w>
tz ei
künf te</w>
2 2.</w>
F re
beha vi
Bo den
sch ütz
Genehmig ungs
Er gän
mand atory</w>
syst emen</w>
at ures</w>
man aging</w>
bean tragt</w>
de -
Go vern
gre at</w>
ar ily</w>
natür liche</w>
bewer ten</w>
di ver
li min
hal ts</w>
as h
lo ad</w>
sp rüf
V e
ra ise</w>
sh ared</w>
nor men</w>
k rank
G F
succ ess</w>
defin e</w>
Anrei ze</w>
ket te</w>
bin dung</w>
di ar
prepar ations</w>
gehöri ge</w>
Gener al</w>
claim ed</w>
beginn ing</w>
N ations</w>
Auf trag</w>
for t</w>
la g</w>
it u
leg i
ah me</w>
Be dienst
aus drücklich</w>
there by</w>
spar tn
Organ e</w>
oper ative</w>
no tifi
- European</w>
ich ten</w>
höh ere</w>
Folgen absch
. a.</w>
D G</w>
decisi on-
s ity</w>
di ox
l ust</w>
c ent</w>
ans ässi
num bers</w>
glob alen</w>
Ar mut</w>
P lan</w>
Ak tions
Rech tsp
li abilities</w>
a th
m als</w>
L eg
fall enden</w>
ak tiven</w>
Vorschlä gen</w>
sp rechen</w>
Li ber
Beg riff</w>
suppli ed</w>
emp has
Li th
Besit z
constit utes</w>
Plat t
verwal tung</w>
thir d-
Ver anstal
judg ment</w>
wissen schaftliche</w>
en -</w>
Nutz er</w>
person nel</w>
ori ent
indirec t</w>
a ward</w>
reib ungen</w>
einge stuf
schlä ge</w>
Nahr ungs
E P</w>
sch iff
rec ently</w>
re actions</w>
stell ung
Bulgari en</w>
pro to
Komm iss
C yp
Asy l
OEC D</w>
Sek re
t y
Ta ges
Umstruktur ierung</w>
en g</w>
die jenigen</w>
k örper
compati bility</w>
norm ally</w>
emp ha
c tion</w>
frei ung</w>
5 ,
ag ain</w>
de h
ver letz
A ll
sozi aler</w>
stätig keiten</w>
Dem o
R uss
Proje kt
EU- Mitgliedstaaten</w>
gerech tfertigt</w>
s -
in fl
er sucht</w>
verb reit
fi zierung</w>
Fri sten</w>
kl eine</w>
I D
pro grammen</w>
2 1.</w>
höh eren</w>
ver an
Po si
Lebens mitteln</w>
f res
high est</w>
decre ase</w>
frau d</w>
de pos
be darf</w>
assess ing</w>
exper t</w>
vol le</w>
reg uli
it ability</w>
wh il
St reck
effizi enten</w>
whil st</w>
ver folgt</w>
ak tiv</w>
ak ten</w>
Anhän ge</w>
beg leit
programm ing</w>
fest zustellen</w>
gewähr en</w>
ver zerr
horizon tal</w>
o ber
b ung</w>
grenz übergreif
proper ly</w>
sin n
represent ed</w>
man aged</w>
en an
K O
envis aged</w>
demonstr ate</w>
Geleg enheit</w>
al co
Funk tion</w>
P unkte</w>
op ened</w>
Demo krati
Auftrag s
aus geschlossen</w>
jähr liche</w>
Afri ca</w>
Aus nahmen</w>
teil ungen</w>
incre as
3. 4</w>
den e</w>
ordnungs gemä
influ ence</w>
wi d
dies bezü
zurück zuführen</w>
zeich neten</w>
ex pl
S um
chin esischen</w>
zi vil
gesch ätz
au m</w>
kommen den</w>
b ul
rel ative</w>
Sekt ors</w>
pro p
hel fen</w>
R et
su s</w>
rep räsent
ge zeigt</w>
pre is</w>
entschei den</w>
vic ti
mar king</w>
prog res
car b
U -
pil ot</w>
G D</w>
M or
enhan ced</w>
Cyp rus</w>
vereinbar ungen</w>
er mitteln</w>
i ens</w>
anno unc
beruf lichen</w>
p et
obstac les</w>
setz ungs
dra wing</w>
l ang</w>
C N</w>
T ro
v an</w>
increas ingly</w>
vor her
j ung
Hand els</w>
de duc
F rem
previ ously</w>
pp ing</w>
P S</w>
le i</w>
oc cur
Zeit raums</w>
f are</w>
ge strichen</w>
befür wor
Hindern isse</w>
E l
Char ter</w>
Al ter</w>
ar ch
buil dings</w>
besch einigung</w>
Verbin d
er nen</w>
Technologi e</w>
remuner ation</w>
Wech sel
qualifi cations</w>
transfer s</w>
st able</w>
n ischen</w>
consul tations</w>
tax es</w>
enti re</w>
Toch ter
funk tion</w>
E inigung</w>
X X
Sicherh eit
offici als</w>
er such
ten de</w>
acces sible</w>
Markt es</w>
instruc tions</w>
sp er
li c</w>
re plac
größ eren</w>
ent al</w>
2 50</w>
D ro
k -
si an</w>
inter im</w>
sch ritt
B rem
gre en
al most</w>
abl es</w>
restric ted</w>
Projek ten</w>
Bür gern</w>
thresh old</w>
E L</w>
Nor way</w>
erh iel
ursprün glichen</w>
ac tually</w>
Konform itäts
Innov ations
g ab</w>
Lith u
entreprene ur
rupp en
em a
e ver
bereit ungen</w>
Entschei dungs
n avig
cle ar
Stei gerung</w>
Über prüf
trans l
ens es</w>
spann e</w>
st ein</w>
W ohl
s lau
kontro ll
om s</w>
Mu ster</w>
Mehr heit</w>
immedi ate</w>
än digen</w>
contrac tual</w>
ma ß</w>
strateg ischen</w>
labor atory</w>
an e</w>
cell s</w>
ho od</w>
ständi ge</w>
pro pose</w>
höh er</w>
rel atively</w>
pers ön
per spec
geb unden</w>
N ummern</w>
kl ein
wäl tigung</w>
Vorsit z</w>
sc en
ut ing</w>
so gar</w>
ik o</w>
P O
Zw ischen
T ext</w>
re im
aus geführt</w>
Vertrau en</w>
v ations</w>
Dritt staat
besch le
agen ts</w>
en cies</w>
regar ded</w>
Reg ierungen</w>
omm unic
S eiten</w>
geschloss enen</w>
mi tig
Koso vo</w>
An schluss</w>
e quality</w>
17 .</w>
Modern isierung</w>
Luxem burg</w>
she et</w>
appe ar</w>
ati cally</w>
tra genen</w>
rec ord</w>
kan ischen</w>
betro ffen</w>
angem el
ander es</w>
stan z</w>
em issionen</w>
Verhalten s
Secre tariat</w>
laun ch</w>
conver gence</w>
chan ging</w>
Ver gü
e vol
l us
gem essen</w>
exper tise</w>
T S</w>
isier t</w>
er mäch
e vent
wer k</w>
K yo
Fahrzeu gs</w>
solidar ity</w>
model s</w>
Hal b
se ek</w>
weis ungen</w>
Besch einigung</w>
.. ..
gar n</w>
oper ated</w>
tl and</w>
29 .</w>
Qu o
lo se</w>
früh eren</w>
anwend bar</w>
incre ases</w>
In haber</w>
lan ge</w>
I X</w>
Erfol g</w>
EFT A-
l ö
beschrieb en</w>
zul etzt</w>
ver ify</w>
St ändigen</w>
ful filled</w>
Soli dar
telec ommunic
Bo sn
rel le</w>
W ahl</w>
zahlreich e</w>
Ver st
buil d</w>
Fahrzeu gen</w>
Beg rün
St äd
f ach</w>
excep tional</w>
Sozial ausschuss</w>
W är
Ver arbeit
wieder hol
appro aches</w>
Schä digung</w>
solven cy</w>
simpli fication</w>
re stri
14 .</w>
w ater
adap t</w>
ssyst em</w>
Ab sätzen</w>
hin zu
S IS</w>
Mik ro
Vertre tern</w>
Ver markt
Überwachungs behörde</w>
forese en</w>
ei gene</w>
Bezugs zeitraum</w>
Berich ts</w>
R yan
it es</w>
de al
ör per</w>
ru n</w>
bek ämpfung</w>
Konsult ationen</w>
F -
Erwer b</w>
Er richtung</w>
depen ding</w>
mitge teilt</w>
Er hebung</w>
fü gen</w>
ger icht
dest ination</w>
U Z</w>
Geor gi
ar t
word s</w>
territori al</w>
inform iert</w>
fres h</w>
k rise</w>
Un garn</w>
Nor m
vorlieg ende</w>
unter schei
Bemerk ungen</w>
L o
c ep
a kt</w>
einge fügt</w>
Verbin dungen</w>
ff er
eh emal
IC T</w>
Dialo gs</w>
to ol</w>
S C</w>
ish ing</w>
k ategor
acc eler
w eiten</w>
sus p
dec k
Ausnah mer
b and
Konta kt
leit ungs
geänder ten</w>
Rau m
tri e
slau gh
ber ühr
tr ends</w>
Rahmen bedingungen</w>
san ctions</w>
ac tiv
T un
gel eist
Treib haus
Gew inn
demonstr ated</w>
fund ed</w>
Sel bst
An leg
si ert</w>
Sta ates</w>
gli e
auf weisen</w>
an ger
re fu
impor ters</w>
Er läu
continu ing</w>
hel p
jün gsten</w>
Befugn isse</w>
Gerä te</w>
unabhängi ge</w>
ge t
ü ben</w>
in put</w>
op s</w>
k eit
au en</w>
fo ot
bi tion</w>
d ritte</w>
grundsätz lich</w>
iss ens
vorgeseh ene</w>
Kapaz itäts
steh ende</w>
di c</w>
Fest setzung</w>
F a
arz nei
reim bur
vo te</w>
ne utr
imp lic
Durchführungs bestimmungen</w>
g n</w>
Par tei</w>
hol d</w>
P ak
St raft
Er kenn
25 .</w>
regul arly</w>
rech ung</w>
si zed</w>
is men</w>
main taining</w>
Fla g
ch tl
Prä sidenten</w>
Konzentr ation</w>
conflic t</w>
quanti tative</w>
ü ro
exc essive</w>
verein fach
repeal ed</w>
assess ments</w>
nach gewiesen</w>
Energie effizienz</w>
resi du
we ek</w>
ste ad</w>
ke ep
un eingesch
tion elle</w>
Land wir
23 .</w>
coher ent</w>
Haushal tsp
geograf ischen</w>
Finn land</w>
g ä
Sp iel
sta at</w>
Ryan air</w>
str ö
exp iry</w>
18 .</w>
n a
consider ing</w>
b lu
rec all
Doku mente</w>
vis a</w>
Pflanzen schutz
Hin sicht</w>
reich s</w>
Ter ror
zu vor</w>
par ame
lau t</w>
jähri gen</w>
co operate</w>
ass es</w>
ic als</w>
withdraw al</w>
Mod alitäten</w>
ver sion</w>
pre limin
gel ö
consist ency</w>
green house</w>
be wahr
ed ed</w>
erh oben</w>
sus pension</w>
Um stände</w>
Bek annt
Über arbeitung</w>
Rech nung
wel fare</w>
Er leich
rel ativ</w>
kl einen</w>
gän ge</w>
Finanz institu
hier für</w>
S .
Po tenzial</w>
cip i
Vereinig te</w>
K roati
acc ept</w>
Ausrü stung</w>
grenzüberschreit ende</w>
kontro llen</w>
Brü ssel</w>
Vor gehen</w>
in stead</w>
beru ht</w>
am ing</w>
Zu ge</w>
Wirk ungen</w>
einig ungen</w>
Croati a</w>
ausreich ende</w>
ab sor
In f
install ations</w>
el ine</w>
Qu ellen</w>
di stance</w>
V O</w>
elek tr
Zu gangs</w>
surve y</w>
ci ties</w>
Rent abilität</w>
zeh n</w>
est ing</w>
7 .</w>
enhan cing</w>
glo bal
w rit
ver m
Mehr wert
u .</w>
p y
sti ll
n i
19 .</w>
sam ples</w>
ge wesen</w>
metho de</w>
radi o
he at</w>
grenz ung</w>
as signed</w>
Ver mei
mit einander</w>
auf nahme</w>
wachst um</w>
dou b
tabl es</w>
d. h.</w>
addres sing</w>
leg te</w>
Zy per
Drittl änder</w>
gab en
sp ort</w>
bes timmen</w>
Ver d
Sum mit</w>
Ver sto
la bel</w>
tr ust</w>
in vo
reli able</w>
invest or</w>
au p
adjust ments</w>
decre ased</w>
st raf
t un
B lick</w>
se ek
Schen gen</w>
prelimin ary</w>
low -
Rück gang</w>
Ab weich
n ä
ich e</w>
B undes
M ass
Ver tei
adju sted</w>
Geschäf t
A G</w>
Herz eg
qu es</w>
fre und
d ler</w>
kehr ungen</w>
Materi al</w>
O T
o red</w>
Wirk stoff</w>
acc o</w>
Preis en</w>
3 .</w>
up date</w>
stütz en</w>
Re aktion</w>
netz e</w>
r ats</w>
Deleg ierten</w>
reser ve</w>
kon tinu
ho her</w>
Spra che</w>
Europ a-
ul ti
rech tlich</w>
T our
g ei
erk ennen</w>
tim ate</w>
ih n</w>
groß er</w>
Bu ch
spe kt</w>
defini tive</w>
com po
Ein führer</w>
er es</w>
langfris tigen</w>
ge wähl
bo ard</w>
M -
1 12</w>
min utes</w>
T ri
fla g</w>
auf en</w>
stärk ere</w>
Vermei dung</w>
second ary</w>
hal tungs
deli ver</w>
Daten schutz
26 .</w>
pe ace</w>
schließ ung</w>
Ein stuf
employ ers</w>
Ein heit</w>
I cel
Bezu g
al one</w>
produk tion</w>
defini tions</w>
Geb ühren</w>
Mechan ismen</w>
ob jek
überschreit en</w>
Ein reichung</w>
Drittl and</w>
Bas is
l es
Verbess erungen</w>
chem icals</w>
H o
allow ances</w>
ge stellte</w>
S icht</w>
z eiten</w>
tob acco</w>
Luftfahrt unternehmen</w>
t on</w>
sel n</w>
beeinträch tigt</w>
well -
än den</w>
Voll streck
Aus führung</w>
vollständi gen</w>
ck en</w>
Sor ge</w>
produk ten</w>
s cre
Ver teilung</w>
inform ationen</w>
Z ut
un ig
1 1.</w>
pan el</w>
adver ti
Lauf zeit</w>
enabl ing</w>
ut ri
flä che</w>
U S-
R ats
air ports</w>
tion ally</w>
Markt teil
6 00</w>
star ted</w>
einzel ne</w>
6 ,
aus gerichtet</w>
Hin weis</w>
du m</w>
erwar tet</w>
H and</w>
imm un
econom ies</w>
den noch</w>
Al ters
ie den</w>
be findet</w>
i p
f eld</w>
R E
ordnungs gemäß</w>
A ktu
mo ve</w>
he av
fähi g</w>
Zusammen fassung</w>
3. 5</w>
posi tiven</w>
Umstruktur ierungs
Kul tur</w>
kon sul
recei pt</w>
parame ters</w>
is ations</w>
geb ieten</w>
Gef lü
Unter richtung</w>
I A</w>
zu ges
qu ellen</w>
selb st
ich te</w>
Risi kom
politi scher</w>
glie derung</w>
berühr t</w>
atta ched</w>
represent ing</w>
Gemeinschaft sebene</w>
r ation
mark ed</w>
inten ds</w>
hän gen</w>
correc t</w>
sub jects</w>
Re form
Ur teil</w>
Fer tig
extern en</w>
Statisti ken</w>
Wei ß
Verlu ste</w>
cap able</w>
Ein fluss</w>
4 00</w>
per mitted</w>
g ers</w>
digit alen</w>
fru it</w>
deliver ed</w>
off enen</w>
intern e</w>
tig keits
offic er</w>
aff t</w>
ven tionen</w>
hol dings</w>
durchschnit tlichen</w>
Informations austausch</w>
Flü chtl
m 2</w>
indi rek
earli er</w>
pro chen</w>
benö tigt</w>
we ak
ord ination</w>
Mini ster
dar um</w>
al ong</w>
Russ land</w>
st ant</w>
S enkung</w>
sho wed</w>
komp lex
M ad
Rau ms</w>
bo x</w>
S timmen</w>
12 .</w>
ver gen
kontinu ier
record s</w>
C ES
gesch windi
Ko rea</w>
Flexi bilität</w>
teil ten</w>
di gungs
10 00</w>
re agi
L -
mach in
te es</w>
Gesam th
so il</w>
institu tionellen</w>
behavi our</w>
1 20</w>
r enz
inser ted</w>
erforder lich
Antwor t</w>
bezieh ungen</w>
balan ced</w>
h ase</w>
form ation</w>
Prior ität</w>
en ced</w>
Bet riebe</w>
rec itals</w>
inten tion</w>
re presents</w>
poin ted</w>
decision- making</w>
Ver bot</w>
Aus führ
st et</w>
appropri ations</w>
partner ships</w>
vol um
coll abor
we g</w>
intra -
tr end</w>
fe atures</w>
applic ants</w>
em erg
verring ert</w>
ple ase</w>
lo s</w>
hil fer
wel chen</w>
P har
verb lei
Regist er</w>
n ten</w>
An merk
sk in</w>
at tri
gi ves</w>
Gr öße</w>
al ten</w>
C T
Vereinbar keit</w>
er ship</w>
einzi ge</w>
han del</w>
se ment</w>
p ig
enz a</w>
Min der
ge achtet</w>
Dritt staaten</w>
sch es</w>
N ord
4. 5</w>
erforderlich enfalls</w>
lok aler</w>
pl en
Ges etz</w>
posi tiv</w>
A f
13 .</w>
he aring</w>
sa gen</w>
v ital</w>
aff ecting</w>
Arbeitsplätz en</w>
w -
er inn
Aufenthal ts
per form</w>
es sions</w>
f lik
ver tritt</w>
third- country</w>
own ed</w>
om et
kurz fris
reduc tions</w>
mensch lichen</w>
10 .</w>
Zusammen setzung</w>
künf tig</w>
ange stre
Net to
Erfahr ung</w>
m essen</w>
dissem ination</w>
produc ing</w>
del eted</w>
Sub si
Arznei mitteln</w>
2007- 2013</w>
own ership</w>
g an</w>
u til
Sat z</w>
Al ban
recommen ds</w>
Bestand teile</w>
st ab
investig ations</w>
ver bo
dan ach</w>
ss en
eb o</w>
Re du
le -
beauftrag ten</w>
fo od
wi dri
Er lass</w>
ra ising</w>
empf än
r auch</w>
nehm ung</w>
gleich ung</w>
a ware</w>
Garanti en</w>
j eg
vorhand enen</w>
K N-
icht sp
Am t</w>
über nehmen</w>
avo i
cl ari
ho using</w>
Begrün dung</w>
gener ated</w>
dead line</w>
T EN
kön ne</w>
conver sion</w>
u .a.</w>
parti al</w>
comb at</w>
l assung</w>
Über gang</w>
vulner able</w>
cam pa
Auftrag geber</w>
Niederlan de</w>
s ex
Luft verkehrs
mak ro
exp lic
nei gh
9 0
Mel dung</w>
Arbeitsplat z</w>
admini stered</w>
re cipi
direc tion</w>
re ci
ell ed</w>
leg ungen</w>
bri ef
t am
Struktur en</w>
Rech t
E ast</w>
pati ent</w>
ss er</w>
rä ume</w>
projek te</w>
res sourcen</w>
occ ur</w>
heb en</w>
ach tung</w>
b isl
angebo ten</w>
übermittel ten</w>
Arbeits weise</w>
high ligh
Lissab on</w>
Kat astro
encour aging</w>
sser n</w>
l in</w>
radi o</w>
n ich
merk samkeit</w>
bisl ang</w>
interpre tation</w>
consoli dated</w>
si mul
wel com
nehmen den</w>
advanta ges</w>
stre am</w>
Mein ung</w>
sch reiben</w>
al te</w>
ol der</w>
wo od</w>
Wettbewer bs</w>
Char ak
sat ell
refu ge
Ab satzes</w>
off ers</w>
gan g
commit tees</w>
Gü ter
Ein heiten</w>
teil ungs
suppli er</w>
ter ungen</w>
merg er</w>
voc ational</w>
norm alen</w>
Nor mal
respon d</w>
überwach t</w>
ve ge
sprü che</w>
welcom ed</w>
Rich tung</w>
Eng agement</w>
Wahr ung</w>
benach tei
In stand
Slo wen
Bedürf nisse</w>
ziel en</w>
gegeb enen</w>
U C
Ex position</w>
Empfän ger</w>
Antrag s</w>
Kapaz ität</w>
Haushalts jahr</w>
0, 5</w>
mü sse</w>
Besch aff
stri ch</w>
mem ber
Verkauf s
Ar gu
re source</w>
ger ing</w>
aktu ellen</w>
ber ichts</w>
neu es</w>
6 .</w>
eh er</w>
Lauf e</w>
Nachhal tigkeit</w>
Un gleich
scho ol</w>
democ racy</w>
Ö ko
b li
out put</w>
v ar
subsequ ently</w>
schütz en</w>
un bedingt</w>
car d</w>
abhängi g</w>
re ise</w>
ger egelt</w>
Stand ing</w>
abweich end</w>
dies el</w>
S ou
ung en
Stuf e</w>
prepar ing</w>
Sloven ia</w>
strä ger</w>
custom er</w>
Verzeichn is</w>
An fang</w>
suppli es</w>
carri ers</w>
age ment
subsidi arity</w>
p oll
erziel ten</w>
t oler
govern mental</w>
g üns
Syst emen</w>
Auf merksamkeit</w>
er zi
dist inc
Ern ähr
proz esses</w>
Erleich terung</w>
27 .</w>
vor aus</w>
erforder n</w>
co st-
kultu rellen</w>
bo t
personen bezogener</w>
Indi a</w>
5. 3</w>
Lissab on-
or al</w>
ES F</w>
wirtschaf tung</w>
Ge wicht</w>
j a</w>
contr ary</w>
5 .</w>
Flugh äfen</w>
nehm er
eng ruppe</w>
m uni
le ben</w>
as k</w>
Mini stry</w>
lic ens
E benen</w>
Be wältigung</w>
ver stärken</w>
se u
O N
m utzung</w>
Plan ung</w>
si l
201 4-
pl om
besonder er</w>
Verfü gbarkeit</w>
ro und</w>
identi ty</w>
ques tion
CO M</w>
verfol gen</w>
Rechts rahmen</w>
Frü h
mechanis mus</w>
Subsi diar
k ein
be stände</w>
über wachen</w>
fri ed
re tur
navig ation</w>
administr ations</w>
T her
pla yers</w>
ab gel
Li qui
ü ch
V ari
Ein stellung</w>
C P
Po st
ga be
appe ars</w>
geh and
gef unden</w>
er mittel
Trans aktionen</w>
refer s</w>
abhängi gkeit</w>
C Y
expor ted</w>
erklär te</w>
datab ase</w>
S an
erklär ung</w>
Binnen markts</w>
Anwen dungen</w>
s elling</w>
Ak tion</w>
Ged ank
penal ties</w>
competi tors</w>
W ein
L ernen</w>
lo ok</w>
k ol
circ ulation</w>
ater al</w>
verlan gt</w>
contribut ing</w>
i al</w>
den de</w>
li sts</w>
Fol ge
General sekre
nah men
a y
L ern
R T
E V
4 .</w>
th an
Drittstaat san
unter zogen</w>
techni ques</w>
machin ery</w>
C y
St ro
pro b
U S
K no
jo in
facilit ating</w>
Grund rechte</w>
Di ffer
D an
Erzeu ger
Rechts -</w>
sci ence</w>
d i</w>
Mitgli ed
F T
encour aged</w>
E ti
stric t</w>
äl ter</w>
gew onnen</w>
end -
tri fft</w>
fre ight</w>
dischar ge</w>
co operating</w>
A R</w>
remo ve</w>
author isations</w>
W al
Eigent um</w>
er stellen</w>
Af gh
AK P-
multilater al</w>
Ergebn issen</w>
fest legen</w>
öff nung</w>
Luft fahrzeu
Best eu
unser er</w>
beruf liche</w>
consul t</w>
Schw ellen
exp enses</w>
p sy
schied ung</w>
exam ples</w>
Stoff en</w>
vari ety</w>
in sufficient</w>
vor h
Zu stand</w>
schwer wieg
pf er</w>
Umweltsch utz</w>
gen s</w>
lea ve</w>
pop ul
geb ung</w>
lich keits
acc redi
ser v
Gedank en
Elekt ri
design ation</w>
9 -
k lus</w>
al -
sach e</w>
bio diversity</w>
tu n</w>
Lithu ania</w>
land wirtschaftliche</w>
arran gement</w>
t oren</w>
sched ul
M I</w>
Ab sicht</w>
p un
Kompet enzen</w>
stellung nahme</w>
n utri
gro ss</w>
univers al</w>
safegu ard</w>
Nor wegen</w>
shor t-
Is ra
lini e</w>
e an
4. 2.
Ver gabe</w>
ri d
Rah mens</w>
ac qui
ver wirk
gebi ets</w>
SM E</w>
Zuständi gkeiten</w>
8 5
subsi dies</w>
beobach tet</w>
primar ily</w>
ök ologischen</w>
b es</w>
Struktur fonds</w>
broad cast
unter zeichnet</w>
sich ten</w>
fe e</w>
substanti ally</w>
Demokrati e</w>
20 -
i ra
continu ous</w>
M w
ge t</w>
fo ur
st äd
rech nung</w>
L et
Initi ativ
far m</w>
vereinbar ten</w>
prä z
sto ck
inform ieren</w>
ti erten</w>
T el
Inf ek
plen ary</w>
Ergän zung</w>
ser ve</w>
an spruch
erg ab</w>
acti vely</w>
ES -
empha sis</w>
Verab schiedung</w>
ex changes</w>
dür ften</w>
. 1</w>
Eti ket
ver trag</w>
toxic ity</w>
ex plan
ko dex</w>
back ground</w>
Schi en
don es
Liqui di
Zu cht
Flughaf en</w>
supple mentary</w>
g am
Redu zierung</w>
komm erzi
go al</w>
Ab änderung</w>
li en</w>
muni cip
Ver trieb
tre tens</w>
Rand nummer</w>
zu verlässi
vi r</w>
lan gen</w>
ec o
potenzi ellen</w>
port foli
or ders</w>
z ones</w>
ma b</w>
ein fach
Infrastruktur en</w>
Ver z
An meldung</w>
f isch
s wit
o s
läss lich</w>
Partner schaften</w>
ausge gangen</w>
n äh
he ating</w>
am en</w>
erör tert</w>
cop y</w>
Dru ck
frei e</w>
A qu
Ge win
indic ations</w>
er streck
verlän gert</w>
telecommunic ations</w>
off izi
o re
derzei tige</w>
appe al</w>
Marktan teil</w>
o ssen
guarante ed</w>
hab it
ent wurf</w>
Garanti e</w>
end ar</w>
I m
ge is
en jo
Präsi dium</w>
weit ung</w>
cal endar</w>
publ ish</w>
re pa
Nor th</w>
ma ßen</w>
iz e</w>
kon stru
Span ish</w>
pi p
pro of</w>
Akte uren</w>
ti me
educ ational</w>
verstärk te</w>
1. 6</w>
accept ance</w>
Pflan zen</w>
hin aus
T emperat
ge fasst</w>
leg ungs
eingestuf t</w>
L abor
10 4</w>
exclu sively</w>
Gi pf
weit gehend</w>
posi tionen</w>
requ iring</w>
St reit
Verbind lichkeiten</w>
zieh ung</w>
kon zentr
az il
ris ing</w>
vor sehen</w>
An gleichung</w>
ent gegen
adap tation</w>
in tell
ländi sche</w>
de tail</w>
er wor
bi a</w>
statisti schen</w>
äl fte</w>
h op
IF RS</w>
F eld</w>
ol e</w>
am tlichen</w>
g g
il e
Diskrimini erung</w>
sta ges</w>
Pro ben
D ep
Arbeit geber</w>
establish ments</w>
bet rei
sy mptom
Kroati en</w>
itä tsp
vor haben</w>
seit ens</w>
re u
fähi ge</w>
poul try</w>
nä chst
adap ted</w>
untersuch ung</w>
en es</w>
advan ced</w>
fe ed
fe a
eng ruppen</w>
Einstuf ung</w>
intell ec
addi tives</w>
identi fying</w>
berei chs</w>
c ar</w>
refer ences</w>
dri ver</w>
T est
standardis ation</w>
eb ene</w>
comb ating</w>
A ir
volum es</w>
sit z</w>
revie wed</w>
ra b
health care</w>
vol lem</w>
Elektri z
ent fer
200 0-
intelli gen
dynam ic</w>
et es</w>
re place</w>
dan ger
Verbrauch ern</w>
geleist et</w>
k apital</w>
ra gs</w>
dat en
ur ity</w>
gestal tung</w>
adop ting</w>
vali dity</w>
ge ziel
Herstell ern</w>
lok ale</w>
ex po
pu ts</w>
cam e</w>
rech tzei
Aus gleich</w>
Geltungs bereich</w>
tex ti
n de</w>
E u
Institu t</w>
B ord</w>
discrimin atory</w>
be fin
Ve terin
S k
ver tra
ver anstal
In dien</w>
führ enden</w>
cont am
Zoll behörden</w>
Treibhaus gas
24 .</w>
direk ten</w>
rit er
po w
li ert</w>
c en
gen -
re jected</w>
mer k</w>
zi er
intellec tual</w>
Ma schinen</w>
Kon vergen
Gesell schaften</w>
sich t
dien st</w>
spre ad</w>
cour ts</w>
announc ed</w>
v als</w>
re insurance</w>
trie b</w>
schwer en</w>
H a
Fortsch ritt</w>
Grün buch</w>
mechanis men</w>
horizon t
ergän zen</w>
w andel</w>
gesell schaftlichen</w>
ch ers</w>
at -
w w
Mittelme er
Gü ter</w>
wer ke</w>
uropä ischen</w>
e z
keep ing</w>
ri d</w>
indepen dence</w>
nei ther</w>
di agno
Politi ken</w>
lü ssen</w>
satisfac tory</w>
reit er
kl are</w>
fr ist</w>
Lat via</w>
Afri can</w>
ü bt</w>
strateg ische</w>
einge gangen</w>
ban k
restric tive</w>
inde x</w>
i ko
Aus weitung</w>
eri ge</w>
consequ ence</w>
ein heit</w>
sicherh eits
ökonom ischen</w>
profi le</w>
danger ous</w>
consider ations</w>
Interoper abilität</w>
en ough</w>
ein iger</w>
ak tions
mel den</w>
Koordini erungs
spec tru
im pose</w>
d uly</w>
com position</w>
ak ti
Auf träge</w>
P A
auf wand</w>
W in
R und
riter ion</w>
le ben
au lt</w>
Interess en
f el</w>
er bringen</w>
Befugn is</w>
bo vine</w>
gerä umt</w>
g ne
as p
8 .</w>
c riterion</w>
N omen
expo sures</w>
Wachst ums
achie vement</w>
remo val</w>
fa chen</w>
stei l
müs sten</w>
Glo bal
wa gen</w>
wesent licher</w>
it y-
estim ates</w>
sto red</w>
Sen si
Kor re
spectru m</w>
P S
d raf
erleich tert</w>
own -
E mit
initi ation</w>
Be ispiel
sch were</w>
col umn</w>
awar ded</w>
vo tes</w>
20 30</w>
vi er
dri ving</w>
T ari
wel cher</w>
uf en</w>
sus pen
em ati
communic ate</w>
bek ämpf
V ic
tre ff
Arbeitslo sigkeit</w>
ul s
tä r</w>
V iz
Er wachs
frei heit</w>
con stra
be tragen</w>
introduc ing</w>
g riech
voraus sichtlich</w>
bi ologischen</w>
Ab bau</w>
sher steller</w>
T yp</w>
vi erung</w>
in hal
grei fen</w>
en sured</w>
direk te</w>
ar ischen</w>
amp ag
recycl ing</w>
ro w</w>
l eh
wo durch</w>
p ho
lei hen</w>
ep h
Krank heiten</w>
Zyper n</w>
olog ischer</w>
berich te</w>
Angeleg enheiten</w>
in land</w>
ab kommens</w>
wi e
liqu id</w>
ge g
lar gest</w>
Gal ile
T r
Person al
Kapit al</w>
s end</w>
S low
liefer t</w>
aus gaben</w>
deplo yment</w>
cover age</w>
Finanz en</w>
Funk tionen</w>
stoff s</w>
b ac
Umweltsch utz
prof itability</w>
di versi
accompan ying</w>
B reit
Aus sprache</w>
K riteri
member ship</w>
lo dged</w>
endgül tige</w>
initi ated</w>
Schwei z</w>
sensi tive</w>
territ ories</w>
entru m</w>
victi ms</w>
th yl
min er
Geschäfts ordnung</w>
for th
r y</w>
Kon text</w>
Zusammen halt</w>
Gest altung</w>
Erzeu ger</w>
stitu tion</w>
at o
Schutz es</w>
Gü l
teil te</w>
concentr ations</w>
c m</w>
Zer tifik
K ol
ätz en</w>
gra d</w>
all eg
angemess ener</w>
question n
fra g
ge tätig
An sch
be weg
pp er</w>
at oren</w>
B A
cl ause</w>
po th
inter ven
Liz enz
prevent ing</w>
be fri
St ahl
met abol
M R
Besch wer
maß nahme</w>
form uli
Ab gabe</w>
mig rants</w>
entschei dung</w>
ar ri
F R
cer e
w est
Auf sicht</w>
schutz es</w>
man age</w>
effizi ent</w>
gl ass</w>
Ent la
ten eg
Antwor ten</w>
ful fil
Hum an
liqui dity</w>
at t
a dem
Beschäftig ten</w>
teil nehmen</w>
durchschnit tliche</w>
replac ement</w>
neigh bo
implic ations</w>
Typgenehmig ung</w>
verschied ener</w>
tim ely</w>
beabsich tigt</w>
num er
beru hen</w>
En ts
10 1</w>
exec ution</w>
9 .</w>
- related</w>
F ar
remo ved</w>
ier enden</w>
Netz es</w>
under take</w>
Vor kehrungen</w>
h ep
ein geführten</w>
zahl en</w>
si st
Americ a</w>
Versor gung</w>
R est
Nor m</w>
mark et
1, 5</w>
Verwaltungs rat</w>
ein sch
di men
del a
cont in
Geb rauch</w>
Daten bank</w>
le u
W andel</w>
Ö l
princip al</w>
Bevölk erungs
ver sicherung</w>
Transp ort
Dru ck</w>
tel e
be u
ste ten</w>
zwec ke</w>
fi le</w>
S wit
i -
modi fi
Verwen dungs
ah n</w>
leg ally</w>
konzentri eren</w>
O S
In dones
Interess ent
Qualifi kationen</w>
geb ra
kapaz itäten</w>
gel ag
Fest stellungen</w>
Ex ek
nach stehenden</w>
gra de</w>
clo ser</w>
besch ließen</w>
adverti sing</w>
establish es</w>
unter richten</w>
ga p</w>
tur no
Mo del
ac ul
10 8</w>
beihilf e</w>
sp richt</w>
g lu
zi el</w>
fo und
ver d
cle an
ti er</w>
perspec tive</w>
anzu passen</w>
o ft</w>
ähn lichen</w>
so ftware</w>
mittl ere</w>
Weiter entwicklung</w>
ausge drück
ru fen</w>
food stuffs</w>
addi tive</w>
Un abhängigkeit</w>
ge ord
In lands
Er arbeitung</w>
mis es</w>
G M
Eigent ü
w age</w>
schritt weise</w>
fac ing</w>
O LA
tä glich</w>
ssyst eme</w>
3 9
um zusetzen</w>
bekräf tigt</w>
ange fügt</w>
acqui red</w>
rep ublik</w>
isier en</w>
a e</w>
Zulass ungs
neg ativen</w>
argu ed</w>
Ver letz
T AR
Futter mittel
cer tified</w>
Mitarbeit er</w>
L ang
u e</w>
Fähig keiten</w>
k einer</w>
Fle isch</w>
read ing</w>
Mon teneg
vorläufi ge</w>
ordin ary</w>
p as
Swit zer
r uss
ologi e</w>
j unc
Ausrü st
pos sibilities</w>
öffent lich</w>
fish ery</w>
ing redi
Mess ung</w>
p r
O per
manag er</w>
gegenwär tigen</w>
Ent gel
Ther ap
Ge fahr
vent ure</w>
kür z
1 10</w>
w on
vor ange
größ te</w>
Switzer land</w>
gezahl t</w>
carri er</w>
er reich
Wahr nehmung</w>
fle isch</w>
ätig ung</w>
gewähr ten</w>
Bran che</w>
consoli dation</w>
net z</w>
depen dent</w>
ati n</w>
prakti sche</w>
ge kenn
A tl
her ange
Zentral bank</w>
Urspr ungs</w>
wil d</w>
ä t</w>
wi es</w>
jah res</w>
I V
prohib ited</w>
ent gel
inten sive</w>
Frequ enz
besch ränken</w>
m ärkten</w>
ster ing</w>
hü tung</w>
Gut achten</w>
rech ten</w>
coher ence</w>
bel on
ti erte</w>
relev ante</w>
far ming</w>
p hosp
änder t</w>
T ren
norm al
1 107</w>
pre mium</w>
gen heit</w>
trans mitted</w>
Ver halten</w>
Erwer bs
zwec ks</w>
Ver brauch</w>
Slowen ien</w>
Herstell ers</w>
interessi erten</w>
b y
M S</w>
K lar
lie fern</w>
join tly</w>
em power
unterschied lich</w>
equi pped</w>
Informations gesellschaft</w>
eng ines</w>
pre gn
ambi tious</w>
entrepreneur ship</w>
Erzeugn is</w>
B s</w>
über nommen</w>
tä tigen</w>
poli ce</w>
continu ation</w>
i or</w>
gl y
be aring</w>
ve -
im migration</w>
Er stattung</w>
Geschäf te</w>
air lines</w>
Chem ik
ck er</w>
Umstruktur ier
größ er</w>
en det</w>
ack le</w>
D S
Bei hilfer
erneuer baren</w>
deut schen</w>
Schi ffen</w>
Registri erung</w>
re kt</w>
exp ec
M isch
Liefer ung</w>
ech ten
re lie
bin nen</w>
Dien sten</w>
Dec kung</w>
A t
sol ely</w>
n ichts</w>
t ackle</w>
electri cal</w>
co al</w>
geplan te</w>
gegensei tige</w>
Gericht shofs</w>
Beg renz
prescri bed</w>
O C</w>
therap y</w>
be steu
traff ick
rel ate</w>
Durch schnitt</w>
Est onia</w>
Materi alien</w>
Begriff s
Folgenabsch ätzung</w>
evalu ate</w>
Kal ender
g ingen</w>
ell s</w>
be ar</w>
ge wä
W il
pro te
genehmig ten</w>
K ab
Ges prä
geschütz t</w>
da m</w>
Be freiung</w>
is ol
ad d</w>
Syn ergi
Me dien</w>
hoch wer
Ver br
te ach
ne w
ange zeigt</w>
Besteu erung</w>
f en
Pil ot
Gre ek</w>
Afgh an
eb ung</w>
conclu de</w>
WT O-
consi sting</w>
H än
us ually</w>
autom atic</w>
ap e</w>
Rom a</w>
ü t
transpo sition</w>
Ziel s</w>
Ge walt</w>
stand s
dep th</w>
An g
verm ieden</w>
id ly</w>
Sachverständi gen</w>
7 ,
shi p
mittel fris
co u
in hi
min alität</w>
geeign eter</w>
own- initiative</w>
Mechan ismus</w>
in wie
fore stry</w>
vis it</w>
Schw ein
repeal ing</w>
m än
l ess
Sy ri
Ver ständ
P L
cho sen</w>
vi rus</w>
gegensei tigen</w>
altern ativen</w>
H C
turno ver</w>
reich ende</w>
ive aus</w>
spezi elle</w>
or ation</w>
Schi ff</w>
zäh len</w>
unter liegt</w>
commer ce</w>
Richtlini en
ell it
läuf t</w>
benö tigen</w>
terror ism</w>
8 ,
ten der
Cha ir
ander s</w>
acul ture</w>
strength ened</w>
ex tra
Bestimm ungs
refl ected</w>
electri c</w>
Aqu akul
Ver lust</w>
B au</w>
super vis
soci o-
mehr erer</w>
won ach</w>
akzep tiert</w>
Anpass ungen</w>
har m
zurück zu
Heraus forderung</w>
Berichterstat tung</w>
g ischen</w>
ein gesetzten</w>
au er
est en</w>
blo ck</w>
Kin der
Fern seh
bean tragen</w>
se ed</w>
ur gent</w>
Vorsitz ende</w>
P läne</w>
Auf stellung</w>
continu es</w>
spezif ischer</w>
Is lands</w>
pl än
Veterin är
Fa ktor</w>
monit ored</w>
g ere</w>
juristi sche</w>
italien ischen</w>
gelten de</w>
West ern</w>
spar ungen</w>
mi d-
fas sten</w>
dump ed</w>
ass urance</w>
re ad</w>
aqu aculture</w>
begrenz te</w>
Iden ti
Exek u
bi ological</w>
D eri
vor zunehmen</w>
Besch ränkung</w>
stei gt</w>
yst em</w>
exemp tions</w>
str on
I T-
tra in</w>
consi sts</w>
Män gel</w>
ch e
ges p
est er</w>
OLA F</w>
Be förder
wen ig</w>
zugel ass
ung stechn
sich eren</w>
Elekt ro
ver sicher
w asser</w>
Iden tifizierung</w>
trac k</w>
ben utz
dis cre
tr a</w>
timm t</w>
mitgliedsta at</w>
Flug zeu
langfris tig</w>
ris iko</w>
rie den</w>
hoh es</w>
b ie
Hilf s
Deri v
Al t
lu ft
Informations -</w>
H älfte</w>
ge stütz
zentr en</w>
m issions</w>
jah res
getro ff
can c
begrün det</w>
Lit auen</w>
ges onder
gel y</w>
cu t</w>
kon tingen
ge dump
deal ing</w>
subsi dy</w>
pursu e</w>
ref und</w>
Jugen d
Projek ts</w>
B on
be wus
Li echten
ch s
meas uring</w>
konkre ten</w>
C C</w>
shor t
zeichn ete</w>
M em
Diskus sion</w>
Durch schnit
ver träge</w>
for ces</w>
explo itation</w>
Jus ti
uls ory</w>
organis ierten</w>
comp ulsory</w>
tran se
sto p</w>
ci pl
vereinbar t</w>
ver gangenen</w>
b in</w>
u ellen</w>
sta y</w>
be fugn
Arbeit nehmern</w>
dis cipl
bo und</w>
Vorsitz enden</w>
rap idly</w>
vor stehenden</w>
g ases</w>
bring ing</w>
pet ro
f licht</w>
Viz ep
tä ts
absol ute</w>
S umm
Pol y
author ising</w>
Fra gebo
verkauf t</w>
subsidi ary</w>
ph en</w>
or gt</w>
S A-
Direc tor
teil nehmenden</w>
er achtet</w>
on a</w>
multi p
Ge fahren</w>
regel mäßigen</w>
c utting</w>
tifi zierungs
gesund heits
gering er</w>
be wäl
glich keit</w>
Aktu alisierung</w>
star ke</w>
mo de</w>
Stabil itäts
occ a
inter -
con ten
M inde
k ro
ex haus
lo ading</w>
sch wer</w>
2, 5</w>
Rus sian</w>
Zwei fel</w>
Steuer pflich
ch ann
T ests</w>
Ent schä
Aus legung</w>
Ter min
voll en</w>
ma p</w>
AC E</w>
L I
reach ing</w>
L ohn
Nor weg
Gerich ts
Flä chen</w>
Bedienst eten</w>
arbeit eten</w>
so u
k raft</w>
Galile o</w>
d ating</w>
Ber echn
N ich
satis fy</w>
no ise</w>
declar ations</w>
boo st</w>
sor ti
Kun st
H z</w>
Char ta</w>
mit s</w>
Umf eld</w>
St rom</w>
writ ing</w>
De par
tier ischen</w>
esti mate</w>
c in
sampl ed</w>
c o</w>
ell es</w>
Auffor derung</w>
behand elten</w>
I .
t i</w>
B lu
spr ing</w>
s mar
ar ms</w>
10 6</w>
R ä
h ence</w>
geb ühr
attri but
P en
Get rei
zü ge</w>
dru ck
pres s</w>
off en</w>
forder n</w>
Währ ung</w>
Pro vin
Mittel punkt</w>
Unter zeichnung</w>
min d</w>
lar gely</w>
vor zusehen</w>
rou te</w>
re ti
le ft</w>
de ep
kin eti
mit ting</w>
m 3</w>
highligh ted</w>
Gesch windi
Or d
proced ural</w>
ir regul
gemel det</w>
pos ing</w>
Solidar ität</w>
ta r</w>
Dienst leistung</w>
Berich ten</w>
air e</w>
agen t</w>
exclu sive</w>
Exeku tiv
Erwägungs grün
Dienst leist
europä isches</w>
infra structures</w>
fo rest</w>
9 ,
ro ad
ab schließ
P res
Kon tak
Fehl en</w>
B us
zwec ken</w>
disp ute</w>
drin gend</w>
Zuck er
ver hältn
mod ul
I CA
foc used</w>
d ing
For derung</w>
A spekt</w>
M au
sul ph
compla int</w>
ak ia</w>
sti pul
prakti schen</w>
Kris en
eng er</w>
ek te</w>
F ir
deriv atives</w>
Verwaltungs vorschriften</w>
stat ut
schn ell</w>
dan k</w>
Klima wandel</w>
as en</w>
Schiff s
Kenn tnisse</w>
li able</w>
easi ly</w>
ti ere</w>
evalu ated</w>
wieg end</w>
Nor thern</w>
ist s</w>
uss en</w>
li erung</w>
Rat ing
Energi en</w>
gelö st</w>
er setzen</w>
gegenwär tig</w>
fer enzen</w>
S ign
ä tigen</w>
pri cing</w>
gerech net</w>
D A</w>
an lage</w>
Summ e</w>
Gebi et
zu gs
resear chers</w>
zul eg
disp at
Ein trag</w>
sm aller</w>
lä ub
disc uss</w>
revenu es</w>
NG Os</w>
äuf er</w>
multi ple</w>
T en
p ru
c -
thre at</w>
spezi fi
Einw ander
t ments</w>
S timm
Berat ungen</w>
fo ster</w>
Er fassung</w>
fass ungs
eng aged</w>
19 89</w>
ungs weise</w>
gestat tet</w>
fit ted</w>
c au
inv ent
capac ities</w>
Aktionsp lans</w>
niedri ger</w>
Assozi ations
stam men</w>
de teri
vorgeschrieb enen</w>
si eben</w>
hö ch
obser vations</w>
ger ingen</w>
Par agra
di vision</w>
b aus</w>
CY P
o k
erwar ten</w>
wh om</w>
detec tion</w>
Ge we
whol es
tis su
An schrift</w>
for schung</w>
e y
Jugen dlichen</w>
en dung</w>
Berat ung</w>
to p</w>
4. 8</w>
al em</w>
confiden tial</w>
sp ir
ish es</w>
tac kl
Übertrag ungs
ge fordert</w>
ema ßnahmen</w>
6. 1</w>
vorgeschrieb en</w>
viel mehr</w>
Evalu ierung</w>
zunehmen d</w>
iz ität</w>
broad band</w>
Let tland</w>
traffick ing</w>
aus gesch
k er</w>
C A</w>
s low
la gerung</w>
geb ühren</w>
Ent schließung</w>
forder te</w>
ma ko
Tab ak
ter in</w>
ver trag
ac i
s äure</w>
wür di
Finanz mittel</w>
D C</w>
el te</w>
besch lusses</w>
Gesch lech
Model l</w>
profi tieren</w>
mini ster</w>
Gew inne</w>
äuß ert</w>
versor gungs
nam es</w>
simpli fied</w>
ar bit
medium- sized</w>
stres ses</w>
harm ful</w>
Aus grenzung</w>
ge worden</w>
Beispiel e</w>
erzeu gung</w>
Afghan istan</w>
fri end
adequ ately</w>
EF SA</w>
shi pping</w>
kommen s
se ven</w>
deleg ations</w>
rep ly</w>
Sü d
statut ory</w>
pen ding</w>
con sent</w>
er lei</w>
Posi tionen</w>
stre icht</w>
Vic e-
zeu gung</w>
Liechten stein</w>
den s</w>
imp air
sto ßen</w>
f aktoren</w>
ed -
TEN -
Platt form</w>
bes u
Mw St
verbun dene</w>
E A</w>
gemein schaft</w>
Monteneg ro</w>
Ereign isse</w>
verursach t</w>
al ign
M ex
S eu
M iss
weigh ted</w>
fer til
Versto ß</w>
A G
spä ter</w>
s th
Wo che</w>
spo t</w>
Kon solidi
war ning</w>
B R
St ütz
gem ess
mittel -</w>
ben annten</w>
al ter</w>
prohi bition</w>
soli d</w>
ator ies</w>
untern ommen</w>
communic ated</w>
Plen ar
Liber alisierung</w>
Sensi bil
hier bei</w>
ta gung</w>
Z un
integri erte</w>
gos la
Beam ten</w>
coll ateral</w>
Darl eh
eg t</w>
t ab
nach weisen</w>
l ück
der ation</w>
Reg ierungs
investi tionen</w>
rein force</w>
stimm t</w>
Beobach tungs
sign s</w>
an ischen</w>
audiovis ual</w>
zu gleich</w>
Beg leit
ar ise</w>
10 5</w>
Bu dge
ge stärkt</w>
derog ations</w>
Vor geh
wichtig ste</w>
ten ten</w>
anerk annten</w>
len ding</w>
c ell</w>
Unternehm er</w>
si ght</w>
gi bility</w>
plan ung</w>
li ke
am tliche</w>
s is
ständi gen</w>
notwendi ge</w>
N B</w>
sh ops</w>
con s
tatsäch liche</w>
plac es</w>
ol ds</w>
re ve
clari fy</w>
ver öffentlichen</w>
H äfen</w>
ent ei
bean trag
ge kommen</w>
as sozi
KO M</w>
Kon kur
sch ied</w>
di plom
enz y
Er ör
G ruppen
M F
Le ber
hin reichend</w>
diesel ben</w>
Zun ahme</w>
Vizep rä
eli gibility</w>
bi ologische</w>
occup ational</w>
Telekommunik ations
F el
wen dungen</w>
ver gabe</w>
Slov akia</w>
Ausführ ungen</w>
pre dic
W oh
Ver trägen</w>
M P</w>
stei gern</w>
modi fication</w>
S R</w>
Über sch
ver stehen</w>
me ets</w>
un geachtet</w>
share holders</w>
zul assen</w>
i fying</w>
bish erigen</w>
separ ately</w>
zü gi
Belgi an</w>
ließ t</w>
2 2
herange zogen</w>
eg eln</w>
da gegen</w>
confer red</w>
berich tet</w>
O pfer</w>
comple mentary</w>
emerg ing</w>
Über legungen</w>
schn ei
com prom
Ira n</w>
fo ssi
Ge wich
Rechts grundlage</w>
A IF
ex -
T T</w>
po t
co ast
Ein nahme</w>
gelan gt</w>
Atl anti
post al</w>
Deleg ation</w>
u n</w>
gemein schaftliche</w>
verifi ed</w>
r ung</w>
exten ding</w>
nachzu kommen</w>
on e-
Sekre tariat</w>
Regulierungs behörden</w>
äu men</w>
ta g</w>
ä mm
T abl
incen tive</w>
Isra el</w>
w ish</w>
Frei heit</w>
relev ance</w>
her stellung</w>
Vermarkt ung</w>
3. 6</w>
bre ach</w>
men ts
supple ment</w>
Wachst um
Partn ern</w>
ungs mittel</w>
manag ers</w>
prepar atory</w>
harmonisier ten</w>
manufac tured</w>
D es
fac ts</w>
wur fs</w>
enti t
di cated</w>
Mel de
lit tle</w>
erinn ert</w>
e ans</w>
Bar cel
ag eing</w>
Sp alte</w>
agen tur</w>
sen ken</w>
sor g
jung e</w>
eri o
ow ner</w>
normal erweise</w>
indic ative</w>
g ut
a kei</w>
Mo tor
EWR- Abkommen</w>
er stellung</w>
extern e</w>
restric tion</w>
pre mises</w>
gei zi
Eing ang</w>
L B</w>
Aus richtung</w>
Par ameter</w>
se as
ri t</w>
St off</w>
S zen
G B
geb un
car s</w>
Krank heit</w>
multi annual</w>
pat ent</w>
grundleg ende</w>
zi erter</w>
en kt</w>
hoh em</w>
at h</w>
tax able</w>
ris iko
renew al</w>
fix ing</w>
GH T</w>
leit en</w>
For st
dou ble</w>
sugge sted</w>
organis ms</w>
l ing
ein heiten</w>
N ier
es ische</w>
Prozent satz</w>
flü ssi
a bel</w>
instru menten</w>
l -
distor tions</w>
bor ne</w>
azil ität</w>
G N
sen se</w>
rechter haltung</w>
3 8
ei m
Instru menten</w>
tific ations</w>
allgem einem</w>
remain ed</w>
Reguli erung</w>
potenti ally</w>
Rechtsp rechung</w>
ehr geizi
au ff
str ong
erb racht</w>
cul ar</w>
S ä
beauftrag te</w>
pursu ed</w>
kl einer</w>
func tional</w>
fin ding</w>
Unions bür
über zeu
dies bezüglich</w>
Arbeits kräfte</w>
star ken</w>
qui ck
ein zur
St o
il lu
Analy sen</w>
T ox
Verbin dungs
B S</w>
represent ation</w>
graph ic</w>
U R
qu an
k il
bre eding</w>
Auf rechterhaltung</w>
Prüf ungs
L eu
Best ände</w>
5 0
ep tion</w>
Zins en</w>
re action</w>
ord net</w>
strong ly</w>
hilf e</w>
de fici
ch i
CO2- Emissionen</w>
e f</w>
consul ted</w>
be träge</w>
Genehmig ungen</w>
Funktions weise</w>
Aussch reibung</w>
ri es</w>
r en</w>
elektron ischer</w>
Sch nit
tabl ets</w>
difficul ty</w>
Kü sten
T ier</w>
par lia
emp fin
conclu des</w>
Abwick lung</w>
Änder ungs
führ ende</w>
exc ell
Ver zö
Ver bringung</w>
getr ennt</w>
D ut
in dent</w>
author ise</w>
Aus setzung</w>
re sident</w>
CES E</w>
ig keit</w>
aktualisier t</w>
agre es</w>
regel mäßige</w>
Män nern</w>
Er as
ter ed</w>
gelan gen</w>
defin ing</w>
Mil ch</w>
war um</w>
d al</w>
eff ic
pow der</w>
fer s</w>
1 a</w>
ob ili
Geh alt</w>
einzu führen</w>
bu s</w>
legi timate</w>
befürwor tet</w>
roll ing</w>
ko oper
M O
fron t</w>
Behin derungen</w>
H A</w>
AC P</w>
reason ed</w>
Au str
struc tured</w>
K ür
Verk äufe</w>
zi erungen</w>
indic ator</w>
Bes u
bereit et</w>
bemü hen</w>
0, 1</w>
re tro
gestal ten</w>
hö her
Berich tigung</w>
t ability</w>
compl et
bel an
gehöri gkeit</w>
public ly</w>
in compatible</w>
satell ite</w>
demokrati schen</w>
doub ts</w>
über trag
sol e</w>
mitgli ed</w>
abl en</w>
protec ting</w>
gener ell</w>
mil itär
Marktteil nehmer</w>
Bel ar
mi ums</w>
Er krank
or an
offi ces</w>
Haushalts ordnung</w>
oblig ator
In anspruch
sorg fäl
i ces</w>
Po li
Mig ration</w>
Lebensmittel sicherheit</w>
ma schinen</w>
mö gen</w>
auf sich
on ien</w>
ein geräumt</w>
g yp
s ü
hand lungen</w>
Kohl en
analy sed</w>
Wirtschafts betei
Feder al</w>
prof its</w>
n ed</w>
a chen</w>
F A
simp le</w>
leit ungen</w>
Com p
zu gute</w>
2. 6</w>
ver z
lin ing</w>
Wirtschafts wachstum</w>
unterschei den</w>
inclu sive</w>
An forderung</w>
äuß erst</w>
poth ek
ven tion
ge -
Verarbeit ungs
inv itation</w>
erfolgre ich</w>
se ems</w>
1. 7</w>
Ein tragung</w>
Dro gen
ei gh
easi er</w>
differ enti
brau chst
specifi cation</w>
run ning</w>
flu g
bestimm ung</w>
ordnungsgemä ße</w>
is mus
kontrolli ert</w>
Aus führer</w>
er scheint</w>
af ri
CC MI</w>
viol ence</w>
mis sible</w>
stell vertre
oc curr
mom ent</w>
gekenn zeichnet</w>
et was</w>
Slow akei</w>
T on
Beschwer de
ri gi
S w
P an
Ein kommen</w>
län ger</w>
ausgedrück t</w>
Kommiss ar</w>
mach ten</w>
fest gelegte</w>
schrif tlich</w>
Minde stan
Est land</w>
ent lich</w>
k örper</w>
sch i
cor ruption</w>
a der</w>
O m
indic ates</w>
eingerei cht</w>
Rechts sicherheit</w>
re ver
pl ate</w>
Inanspruch nahme</w>
Sy mptom
Breit band
ent schieden</w>
alco hol</w>
diesbezü glichen</w>
haz ard
rei bt</w>
effizi enter</w>
confiden ti
Sach e</w>
G läub
pen sions</w>
n ungsp
ein nehmen</w>
zi pl
ständi g</w>
bilater alen</w>
Bel astung</w>
An teile</w>
mitgliedsta ats</w>
lös en</w>
unter streicht</w>
fu er</w>
friend ly</w>
k tion</w>
Person en
sc ru
12 5</w>
st ern</w>
hazard ous</w>
con sen
Vergü tung</w>
tele vision</w>
indic ating</w>
Sich erung</w>
Justi z</w>
Aspek ten</w>
p ac
z ept
valu ation</w>
v on
he art</w>
sp ending</w>
lar ger</w>
il and</w>
v ail
stron ger</w>
bil det</w>
r ant</w>
char ged</w>
p ic
Erwä gung</w>
gew onn
lif el
Vers and
vo ting</w>
impair ment</w>
ever y
Unter ab
syn the
gn is</w>
g ast
bein hal
Be achtung</w>
mach ines</w>
Mon at</w>
bo ok</w>
lifel ong</w>
ab ri
Bestand s
Berich ts
statt finden</w>
dru g</w>
prec eding</w>
stu dents</w>
sich ere</w>
portfoli o</w>
er teilen</w>
T ha
Bank en
Bal tic</w>
exist s</w>
d ges</w>
mi xed</w>
gan zen</w>
S co
Kriteri um</w>
ten ders</w>
kt ru
Sp eich
R O
kno w</w>
ung spo
de dicated</w>
beige fügt</w>
symptom s</w>
ein gestellt</w>
außer gewöhn
wirksam er</w>
Tra g
hei ßt</w>
Wär me
10 -
8 00</w>
finanzi erten</w>
n ütz
un anim
liber alisation</w>
aer o
trans -European</w>
par tly</w>
egel ungen</w>
st ress</w>
Gra d</w>
zulässi gen</w>
nächst e</w>
be achten</w>
let ters</w>
with drawn</w>
arbeit s
ah e
al ed</w>
th or
calcul ating</w>
Haf tung</w>
Bekannt machung</w>
nüpf t</w>
Sat ellit
er l
kräf ten</w>
jo ur
scen ario</w>
cons ist</w>
den selben</w>
O st
for war
ck ing</w>
help ing</w>
St ahl</w>
Bru t
Innov ationen</w>
Er war
vi ert</w>
confidenti ality</w>
tru e</w>
Ziel vor
oblig ed</w>
mo vements</w>
ausge stat
I s</w>
Arbeits programm</w>
bedeut ende</w>
gerich teten</w>
integr ity</w>
b ig
Gebäu de</w>
and t</w>
p a</w>
genü gen</w>
ie gel</w>
L es
ver geben</w>
elec tions</w>
effic acy</w>
Tro ck
wer s</w>
ini b</w>
eröff net</w>
c lu
anti cip
Chan cen</w>
10 2</w>
clear ance</w>
st ets</w>
C or
qualit ative</w>
ck e</w>
Bet ru
proportion ality</w>
äufi gkeit</w>
besteh ender</w>
weltw eiten</w>
I mp
M ag
D oppel
einschlä gige</w>
cont acts</w>
Coun c
pharmac o
k tive</w>
four th</w>
Energi et
quick ly</w>
untern ehmens</w>
berech tigt</w>
samm lung</w>
verbo ten</w>
indirec tly</w>
dem selben</w>
bed ürf
satis fied</w>
ß te</w>
exc ise</w>
Secre tary</w>
ver ank
mer zen</w>
ins ul
humanit äre</w>
ho c</w>
system atic</w>
mensch liche</w>
Emit tenten</w>
mittl eren</w>
acc omm
wi del
exc ess</w>
Kompon enten</w>
eri g</w>
operation ellen</w>
CC P</w>
2014- 2020</w>
s ation</w>
fa ßt</w>
f ro
Best ätigung</w>
verbin dlich</w>
Verwal tungen</w>
socio- economic</w>
nö tig</w>
sugge sts</w>
spezi ellen</w>
hoch ran
wähl en</w>
st es</w>
aussch uß</w>
ahe ad</w>
S I</w>
ü hr</w>
ro utes</w>
C D
se ar
fail ed</w>
dat um</w>
rech nen</w>
avi r</w>
Durchführungs rechts
Bo den</w>
Wissen schaft</w>
Bal k
zusammen arbeiten</w>
out lined</w>
exp an
R ec
E F</w>
Angebo te</w>
analy ses</w>
junc tion</w>
im position</w>
en sures</w>
j un
Kraft stoff
occur red</w>
prec ise</w>
mini steri
an gs</w>
ren al</w>
Wieder auf
Behand lungs
um fan
Par ti
zusammen arbeit</w>
compli es</w>
Ausnahmer egelung</w>
Verhand lungs
bir ds</w>
ver weist</w>
Produk ts</w>
Schlussfol gerung</w>
ger egel
lo sen</w>
Ver hältnis
lauf ende</w>
gen ie
abil itäts
N G</w>
vi ability</w>
modern isation</w>
p unk
mb H</w>
koh ol
Dump ing
st ät
se at</w>
ver tical</w>
r and
househol d</w>
entwick elten</w>
Mehr wert</w>
ger inge</w>
under min
acci dents</w>
ten tion</w>
aus üben</w>
smar t</w>
gen ehm
compli ed</w>
ati tis</w>
cro ps</w>
Fu ß
S im
ES C
statisti sche</w>
equ ally</w>
an o
acces sibility</w>
Sp it
rä umen</w>
inwie weit</w>
Exper ten</w>
u elle</w>
juristi schen</w>
and -
widel y</w>
kon ferenz</w>
gesetz te</w>
Kommunik ation
Invest oren</w>
Ver hütung</w>
vers eh
zy klus</w>
cat ch</w>
Gedanken strich</w>
v ac
them atic</w>
other ap
Besit z</w>
genau e</w>
verhin dert</w>
industri ellen</w>
Ver sicher
ste ering</w>
ssi er</w>
ch em</w>
Dut ch</w>
Wettbewerbs verzerr
A .</w>
is o
gering fü
ge gangen</w>
Aus maß</w>
Au gen
mo sp
zu zu
digit ale</w>
Sch ätzungen</w>
dr y</w>
öffentlich -
liz enzen</w>
gre at
12 34</w>
entscheiden der</w>
ein setzen</w>
Luf trau
wel le</w>
gu ten</w>
Z ö
KN- Codes</w>
Binnen markt
bet riebe</w>
arznei mittel</w>
Pro g
H emm
ro r</w>
m är
spä teren</w>
mess age</w>
Z eu
Global isierung</w>
wieder um</w>
w ant</w>
M ission</w>
rechtzei tig</w>
finanzi eller</w>
Ver gleichs
vor schläge</w>
conten ts</w>
Fle isch
Antrag stell
Aufsichts behörden</w>
t au
mo tor
Flä che</w>
Aus stellung</w>
Unternehm er
Teil s</w>
fo ods</w>
K auf
10 9</w>
den ken</w>
Anhän gen</w>
ex cl
re is
Rück k
prote in</w>
issu er</w>
rec ru
dru gs</w>
Frem d
vor sieht</w>
produc tive</w>
erhiel ten</w>
L t
sho wing</w>
glob ale</w>
besei tigen</w>
Pro ben</w>
genommen e</w>
Gemeinschafts recht</w>
s cri
eh nt</w>
Spra chen</w>
nach drücklich</w>
excl .</w>
W issens
Norweg ian</w>
Ab hängi
l änder
L enk
verb ände</w>
lo gi
Probl emen</w>
über tragenen</w>
yst eme</w>
hältnis mäßig</w>
Rech ten</w>
Deleg ationen</w>
wirtschaf ts
global isation</w>
br in
res cu
ol ing</w>
S om
rech nungs
ar m</w>
Futter mitteln</w>
verantwor tlichen</w>
flu or
appoin tment</w>
Hand lungen</w>
gemeinsam es</w>
Forsch ungs-</w>
ursprün glich</w>
d ung
co- ordination</w>
s au
ges ti
ausgewähl t</w>
f at</w>
Entwicklungs ländern</w>
macro economic</w>
heav y</w>
cle an</w>
Mand at</w>
G mbH</w>
stück e</w>
besch ließt</w>
Futter mittel</w>
sub stan
Schen gen-
6. 2</w>
questionn aire</w>
c r
is s</w>
ti scher</w>
hy gi
Tschech ischen</w>
unter suchen</w>
tw o-
comp uter</w>
fir e</w>
consen sus</w>
signifi kan
profession als</w>
pay able</w>
consider ably</w>
c apit
Mit teilungen</w>
Landwir te</w>
organ iz
erheb en</w>
zahl reichen</w>
mi th
ru ft</w>
con ci
st reichen</w>
Steu er</w>
ven tive</w>
comm o
ti fying</w>
isier ungs
Haf en
den tial</w>
Hin weise</w>
Begrenz ung</w>
30 .
environ ment
Zut ei
probl eme</w>
tri als</w>
- to-
Kyo to</w>
bru ch</w>
deleg ierte</w>
k unden</w>
invol ves</w>
comp u
T ai
genehmig ung</w>
gerä t</w>
re form
Grenz werte</w>
f elt</w>
dep end</w>
Eigen kapital
fest gestellten</w>
geograf ische</w>
off ering</w>
b on
J ord
limit ation</w>
ger ufen</w>
audi ts</w>
li ste</w>
D F</w>
mit zu
min or</w>
beeinfl ussen</w>
Imm obili
in ations</w>
C o</w>
mel dungen</w>
Auf lagen</w>
short- term</w>
A tom
har v
erlau bt</w>
dec kung</w>
Jus tiz
Flü ssi
wholes ale</w>
den k
A C</w>
komp on
do ses</w>
Sich erstellung</w>
ver glichen</w>
k n
d ent
ma il</w>
inten sity</w>
bei behalten</w>
Niederlan den</w>
auf sichts
Transp ort</w>
Vice- President</w>
Icel and</w>
v is</w>
under lined</w>
Stro mer
pla ying</w>
Z ellen</w>
5 75</w>
mo un
berech tigten</w>
depen ds</w>
UN -
R C</w>
wech sel
ME MO</w>
Bet rei
Tages ordnung</w>
Gegen par
x y
zusätz licher</w>
forder ten</w>
assi sted</w>
Tätig keits
Stabil isation</w>
exten sive</w>
n ete</w>
Zu gangs
Produk tivität</w>
son s
umfan gre
Kan di
with draw</w>
ES A</w>
in haber</w>
Zusammen sch
schwi erig</w>
nah m
gener ate</w>
k es</w>
it ly</w>
gesund heit</w>
gli edsta
Ver änderung</w>
rech tlicher</w>
erwar teten</w>
sto od</w>
out standing</w>
berich terstat
ex posed</w>
bas eline</w>
an a</w>
so dium</w>
collabor ation</w>
F C
beizu tragen</w>
requ esting</w>
inf ection</w>
Verständ nis</w>
Afri ka</w>
cou pl
erwäh nt</w>
res sion</w>
Um stellung</w>
Berat enden</w>
perform ing</w>
o f-
isti schen</w>
all es</w>
Lissabon- Strategie</w>
no tifications</w>
er o
Steu erung</w>
la gen
bran che</w>
ap h
ergi es</w>
O li
spezi ell</w>
pa ying</w>
ver stän
sinn voll</w>
C hi
König reichs</w>
sou ght</w>
ma gne
zahl t</w>
there to</w>
do sis</w>
aff ir
M inu
constra ints</w>
S S</w>
I S-
sprüf ung</w>
Fo und
spi rit</w>
Prüf verfahren</w>
region en</w>
the -
tra v
T räger</w>
Gem ü
Res er
Erklär ungen</w>
protec tive</w>
begrenz ten</w>
ab use</w>
IM O</w>
Bewer tungen</w>
klär ung</w>
Risikom an
Por t
Partner schafts
ver zeichnen</w>
Euro system</w>
finan ces</w>
Risiko bewertung</w>
li ger</w>
li ed</w>
Belar us</w>
worl d
üb lichen</w>
I E</w>
geschäf t</w>
al um
p e</w>
endor sed</w>
zu gang</w>
Erkenn tnisse</w>
überwach ung</w>
enter ing</w>
St rah
Ausw ahl
v a
Found ation</w>
her aus
ad vis
Nier en
Ge werk
Zwec ken</w>
Kohä sions
ün f
Inter ventions
compla in
coast al</w>
bal ances</w>
conven tional</w>
partn ern</w>
Par is</w>
ver trä
in er
höch sten</w>
Liz enzen</w>
s ität</w>
In halte</w>
op tional</w>
k aum</w>
sol ange</w>
Mi o</w>
Dire ktor</w>
necess arily</w>
cl arity</w>
N U
Barcel ona</w>
vol umen</w>
recogn ise</w>
ir respective</w>
mix tures</w>
kur z</w>
an genommenen</w>
Sicherh eiten</w>
schedul ed</w>
B ur
Frei zügi
Bed roh
ma x</w>
Er mittl
Über blick</w>
L ast
reagi eren</w>
at ur</w>
Wertpap iere</w>
A chtung</w>
e i</w>
th -
non- compliance</w>
op h
gel n</w>
1. 8</w>
where by</w>
00 -
zusammen hän
tig keiten</w>
safegu ards</w>
d än
M al</w>
ergebn isse</w>
Studi engruppe</w>
II I
uni que</w>
v enz
r i</w>
i des</w>
dri ven</w>
Sch rif
B .
Auf teilung</w>
de gra
k li
brau chen</w>
nor weg
belan gt</w>
m asse</w>
beige tragen</w>
IK T-
conven tions</w>
Leg isl
r ent
inv est</w>
ini um</w>
impor ter</w>
beding ten</w>
au stausch
resul ted</w>
n un
gestat ten</w>
cas e-
bran ch</w>
strateg ien</w>
licens ing</w>
geschäf te</w>
bench mark</w>
Agen turen</w>
k er
ger ade</w>
X I</w>
zus atz
umfass end</w>
caus es</w>
ira ble</w>
bre chen</w>
är z
getr enn
rele ased</w>
geis tigen</w>
Wertpapier fir
do ing</w>
Po sten</w>
Identi tät</w>
en ha
pflan z
dri ve</w>
op ol
geb enden</w>
Rats vor
Pf licht</w>
x -
er wer
ssyst ems</w>
chem ischen</w>
acci dent</w>
spoliti sche</w>
sp rä
getroff enen</w>
I T</w>
micro -
N A</w>
seek ing</w>
nieder gel
exemp t</w>
comple ment</w>
ten si
s me
Liefer anten</w>
prefer ential</w>
d licher</w>
sign ature</w>
medizin ische</w>
Ein gliederung</w>
ur ges</w>
Vor r
Initiativ stellungnahme</w>
fac es</w>
emati k</w>
Zeit plan</w>
M asse</w>
Haushal te</w>
organ ization</w>
lu ß
eng ine
Man agement</w>
i red</w>
bra chte</w>
Sit u
13 8</w>
dienst leist
Depar tment</w>
Finanz instrumente</w>
ell ung</w>
Untersuchungs zeitraum</w>
mo des</w>
versch mutzung</w>
thresh olds</w>
Vor gaben</w>
aus gehend</w>
Vorgeh ens
Ab bildung</w>
wä ch
vers ehen</w>
prospec ts</w>
Rück versicherungs
P i
Kontak te</w>
p al
Energi equ
world wide</w>
h im</w>
4. 6</w>
techn ologische</w>
T V</w>
poll ut
ange l</w>
zu fried
an tly</w>
au fer
quar ter</w>
plat forms</w>
ologi en</w>
bra king</w>
m -
ar om
an belangt</w>
fest gesetzten</w>
sched ule</w>
so fort</w>
Re aktionen</w>
Erwachs enen</w>
empower ed</w>
be herrsch
sich ern</w>
re covered</w>
nom inal</w>
cho ose</w>
M er
verpflich ten</w>
potenzi elle</w>
beur teilen</w>
Straft aten</w>
ges ehen</w>
nit ro
Akti en</w>
weiter es</w>
W SA</w>
Tai w
ro om</w>
dec line</w>
Verwaltungs -</w>
In fl
w- how</w>
ru f
zu gewiesen</w>
reimbur sement</w>
behand eln</w>
therap eu
spra chen</w>
health y</w>
Ro hr
Ab änderungen</w>
letz te</w>
seit e</w>
r ations
ati es</w>
trans national</w>
gerä ten</w>
j et
der ed</w>
Bür g
l ate</w>
beur teilt</w>
H O</w>
wies enen</w>
si des</w>
nun mehr</w>
ma sch
dis abilities</w>
gan genheit</w>
with standing</w>
p assi
gi ger</w>
t wi
re fin
refuge es</w>
be fassen</w>
ai ds</w>
Betrieb s</w>
zip ien</w>
rel ates</w>
re formen</w>
conflic ts</w>
oper ativen</w>
priv ater</w>
Lag erung</w>
Euro just</w>
illeg alen</w>
er ech
Z in
Ge geb
ier ter</w>
gew isse</w>
s ens
di ert</w>
ati si
unternehm er
H -
techn ologischen</w>
mi x</w>
e e</w>
ci ally</w>
abge geben</w>
Verst öße</w>
correc tion</w>
autom atisch</w>
Flughaf en
Anleg er</w>
accredi tation</w>
L änge</w>
Ein leitungs
speci alised</w>
speci al
ed y</w>
Ver gangenheit</w>
M ac
Lang zeit
Eigentü mer</w>
Schul den
di n</w>
ri ce</w>
spe ak
P E
Charak ter</w>
situ ated</w>
tri g
off ences</w>
ligh tly</w>
coordin ate</w>
Bes onder
k ations
gew innen</w>
Tre aties</w>
renew ed</w>
Zei chen</w>
Sich t
th eit</w>
Be wirtschaftung</w>
zu sch
infl ation</w>
un certainty</w>
Fri ed
ir on</w>
her it
def ault</w>
Gre mien</w>
Vertei digungs
Gr öß
zul eiten</w>
Kur z
comp lex
hi li
b onds</w>
Sch af
n on</w>
aspec t</w>
beschle unig
ed ly</w>
ermäch tigt</w>
ec o-
pig s</w>
Ver äuß
c a
Einsch ränkungen</w>
schwer er</w>
iel t</w>
Dan ish</w>
respec ted</w>
V o
Sit z
Qu elle</w>
Lag er
wider spi
rä gen</w>
An zeichen</w>
ge ar</w>
beinhal tet</w>
Spra ch
u red</w>
j ungen</w>
approxim ation</w>
am ong
zweit ens</w>
proper ties</w>
break down</w>
simpli fy</w>
gra f
Hand lungs
eng age</w>
Off en
word ing</w>
po or</w>
among st</w>
Nicht -
C M
Bra zi
hol ung</w>
govern ed</w>
contribut ed</w>
Schla cht
3 5
ü ssen</w>
Am ster
reti rement</w>
ein geh
residu es</w>
der ly</w>
kein erlei</w>
f em
c it
I N</w>
Arbeits gruppe</w>
ver standen</w>
scho ols</w>
pa tho
Te va</w>
Sch aden</w>
er r
H äufigkeit</w>
rä um
Gegeb enheiten</w>
dist ingu
beg onnen</w>
S on
vir tu
strö me</w>
leich ter</w>
absch luss</w>
Eras mus</w>
gewähr te</w>
Investi tion</w>
sol ches</w>
sem in
influ enza</w>
syn ergies</w>
h u
extre m
Abhängi gkeit</w>
vergleich bar</w>
uni versi
jewei lige</w>
Nat ur</w>
Gleich behandlung</w>
z ins
en or
L ei
buil t</w>
H el
Freizügi gkeit</w>
lig te</w>
mak ers</w>
lam p</w>
hin gegen</w>
bio ci
an halten
3. 2.
vacc ination</w>
00 000</w>
lon g
h inter
eg gs</w>
Stad t</w>
ar di
D reh
au ert</w>
Unterstütz ungs
Plenar tagung</w>
parti ally</w>
bre ak</w>
bi om
W arn
Abschnit te</w>
vorlieg t</w>
prec au
einge tragen</w>
detailli erte</w>
Kri minalität</w>
zuleg enden</w>
bil d</w>
ar en</w>
Arbeits markt
Form at</w>
es ch
be wirken</w>
Wer bung</w>
ou ght</w>
ac ted</w>
universi ties</w>
e kt</w>
A U
Bio zi
install ed</w>
enst off
Arbeits bedingungen</w>
gem isch
v est
mo ving</w>
accur ate</w>
Mal ay
Gegen stände</w>
mitgli eder</w>
eti mes</w>
ent nehmen</w>
H R</w>
A lu
le v
ga ve</w>
ünsti gen</w>
domin ant</w>
not withstanding</w>
st ation</w>
Injek tions
Gefahr en
Kohä sion
com posed</w>
Pol ish</w>
s lightly</w>
autom atically</w>
b ing</w>
infrin gements</w>
en de
ver tik
limit ations</w>
th ro
i b</w>
time -
O GA
consul tative</w>
alleg ed</w>
Bürger innen</w>
Au stausch
m ie</w>
P unkten</w>
0 9.
sour cen
Wirtschaft steil
Katastro phen
rü stung</w>
breit en</w>
P ul
bet reiben</w>
abgel ehnt</w>
se -
be comes</w>
confir m</w>
ter er</w>
sub scri
Er neu
relie f</w>
hal t
Wahr schein
simul tan
non- discriminatory</w>
cro ss</w>
plän e</w>
en dem</w>
compla ints</w>
gä ste</w>
Pri mär
verpflich tungen</w>
em br
H S</w>
stimul ate</w>
ber eiten</w>
Vertre tung</w>
ch am
be coming</w>
D ub
Assozi ierungs
Un regel
di still
genu ine</w>
con junction</w>
scru tin
su che</w>
ern sth
em it
inf ec
flexi bl
nach tei
ab sten
lo t</w>
initi ate</w>
sign al</w>
bir th</w>
organ ise</w>
dienst stellen</w>
cei ling</w>
.e u</w>
sch le
fa ktor</w>
L icht
Ex -
compet ences</w>
chann els</w>
Grenz e</w>
EB A</w>
cat ches</w>
bro ader</w>
N Z
v able</w>
ne y</w>
in ess</w>
vor an
techn isch</w>
Änderungsan trag</w>
allgem einer</w>
Gem isch
regar d
rechts widri
ein s</w>
ge grün
finanzi erungs
Situ ationen</w>
an bieten</w>
Sat zung</w>
secur iti
organis ational</w>
flä chen</w>
respon ses</w>
evol ution</w>
th ly</w>
behin d</w>
n esses</w>
Fu E-
in fusion</w>
erl assenen</w>
canc er</w>
ul ar</w>
on i
exemp ted</w>
ar ities</w>
Fragebo gen</w>
econom ically</w>
f .</w>
Verpack ung</w>
t te</w>
f it</w>
Volks republik</w>
IT S</w>
er mu
besch ränkungen</w>
besch loss</w>
Betru gs
Be weg
simil arly</w>
tim et
ta ke
P act</w>
J o
tex ts</w>
Sti f
ur y</w>
regard less</w>
entscheiden d</w>
ac e
In n
Ele ment</w>
ingredi ents</w>
chem ische</w>
o ils</w>
materi alien</w>
fest en</w>
ök ologische</w>
probl em
vor nehmen</w>
über ein</w>
voll mäch
gehand elt</w>
en gen</w>
di erung</w>
bein halten</w>
Weiß buch</w>
A P
refl ects</w>
ens wert</w>
effizi enter
di schen</w>
Schä den</w>
te am</w>
som etimes</w>
schla g
bra ke</w>
Land es
Erör terung</w>
im posing</w>
Can ada</w>
repa ir</w>
Besch werden</w>
distribut ed</w>
d or
P las
Finanz dienstleistungen</w>
ob ject</w>
energi e
ver handlungen</w>
Is land</w>
Aus land</w>
un able</w>
texti le</w>
Defiz it</w>
expec tations</w>
müs ste</w>
ge wo
Schad en
Geld bu
genehm igen</w>
gebi et
Zuck er</w>
Aufsichts behörde</w>
fi f
b ien</w>
si bly</w>
einge gangenen</w>
analy tical</w>
Ma sch
calcul ate</w>
simp ly</w>
neighbo uring</w>
mo dern</w>
qui val
ell a</w>
IL O</w>
ris iken</w>
fle et</w>
etwa igen</w>
gewerb lichen</w>
Eigent ums</w>
Ad res
brau cht</w>
model l</w>
termin ation</w>
intra ven
cre w</w>
wei chen</w>
verwen dete</w>
P rinzip</w>
r ischen</w>
Hol z
10 3</w>
under p
ge plant</w>
adul ts</w>
Interess engruppen</w>
qualifi zierten</w>
gedump ten</w>
de alt</w>
Bedürf nissen</w>
Mon it
Kredi te</w>
stu dien</w>
Aktiv a</w>
lam ps</w>
f ung
F S
so -
beh aup
in o</w>
ai red</w>
Tha iland</w>
streng th</w>
met al</w>
broadcast ing</w>
Ver mittl
Verhältnis mäßigkeit</w>
Öff nung</w>
qu elle</w>
fill ing</w>
Syst em
Kohäsion spolitik</w>
modifi cations</w>
betei ligung</w>
subsidi aries</w>
pre is
att emp
Konta kt</w>
ti ble</w>
isti sche</w>
initi ally</w>
Mem oran
k i</w>
Entwicklungs länder</w>
ep ts</w>
dar gelegten</w>
S am
G VO</w>
Dienst stellen</w>
sel l</w>
pharmac eu
com bus
Hän dler</w>
Gleich stellung</w>
verur sachen</w>
Li by
Gesamt betrag</w>
e ties</w>
aim ing</w>
in o
pre ventive</w>
y iel
F euer
aus stattung</w>
person en</w>
re stra
en e
b enden</w>
gericht ete</w>
M ün
m ol
diesel be</w>
5. 4</w>
et al</w>
v ary</w>
O B
spra ch
län en</w>
17 82</w>
pflich t</w>
L am
li eren</w>
ro und
p utting</w>
z in</w>
ide as</w>
gesund heit
ermittel ten</w>
Techn ik</w>
Luf t</w>
mix ture</w>
ge d
Zoll kontingen
Bil anz</w>
ges ich
N enn
M ulti
fort gesetzt</w>
Er satz
ränk te</w>
Mig rations
Bewer ber
car go</w>
H S
funk tions
Liz enz</w>
Finanzhilf e</w>
explic itly</w>
expor ters</w>
Wahrschein lichkeit</w>
dimen sions</w>
ti sch</w>
EG- Vertrags</w>
erneuer bare</w>
beg üns
ac et
candi dates</w>
wor fen</w>
e as
ari a</w>
optim al</w>
B üro
tn issen</w>
stan zen</w>
K lassen</w>
Geflü gel
Ver lauf</w>
Berat ungs
wa i
Synergi en</w>
Res ol
tre at</w>
C lear
quo ten</w>
laub nis</w>
Rechts akt</w>
C orpor
pro jec
Ver stärk
Ausrüst ungen</w>
me l</w>
An liegen</w>
zunehmen den</w>
li ves</w>
vi eren</w>
verantwor tungs
t um</w>
mach te</w>
ut ter</w>
om eter</w>
attrac tive</w>
om er
ges tion</w>
Agrar politik</w>
li ver</w>
citiz en
St rei
Nat ri
zu treff
stre am
soci eties</w>
Abwick lungs
Y u
Sich erungs
D y
rä gern</w>
Wettbewer b
Union shersteller</w>
sur vi
proto k
W est</w>
Proz esses</w>
eth n
heb t</w>
Eigen mittel</w>
Per spek
Fu sions
forec ast</w>
besch einigungen</w>
Legisl ativ
expres s</w>
Ver hin
entschei dungen</w>
1 14</w>
ver wei
Antidumping z
spiel t</w>
EW R</w>
e ktor</w>
Überprüf ungen</w>
Er stat
Er halt</w>
work ed</w>
sel ective</w>
te -
re ments</w>
charac ter</w>
P rin
ungsp hase</w>
shi ft</w>
ün del
adul t</w>
Flag ge</w>
Energi es
EWR- Abkommens</w>
betra chten</w>
bat ter
ausgestat tet</w>
verwal tet</w>
aff ord
hin zuge
ap parat
Symptom e</w>
ö st
tra il
the ore
K ap
Be f
1 11</w>
wel ches</w>
ex it</w>
bereit zustellen</w>
Verhin derung</w>
Ar t
unternehm er</w>
stu di
doku ment</w>
cli ents</w>
loo king</w>
Sch ied
in stal
ide a</w>
e ß</w>
z a</w>
un ten</w>
dire ktor</w>
Ern ennung</w>
verabschie dete</w>
tel eph
ernsth af
Aufenthal t</w>
em ia</w>
bie tern</w>
aktu elle</w>
H IV</w>
ak tiv
Drittstaatsan gehörigen</w>
o th</w>
1 30</w>
analy siert</w>
contribut es</w>
at z</w>
20 .
n iveaus</w>
si gn</w>
Konzep te</w>
ung stätigkeiten</w>
foc using</w>
fi cial</w>
ökonom ische</w>
S amm
so dass</w>
je derzeit</w>
erfol gte</w>
ei ght</w>
redu ziert</w>
ran ten</w>
wes halb</w>
vis ions</w>
I de
ü l
so- called</w>
F lo
a way</w>
4 68</w>
S eg
le af
Er öffnung</w>
unterbreit et</w>
tradi tionellen</w>
M id
L y
EC O</w>
ausge arbeitet</w>
nation ality</w>
ab zielen</w>
sor gt</w>
sel ek
allow ance</w>
citizen ship</w>
15 6</w>
suspen ded</w>
off ene</w>
fe els</w>
er fassten</w>
depar ture</w>
s age</w>
netz es</w>
en digung</w>
Auf nah
io s</w>
in side</w>
Beschaff ungs
a .
on o
neg ativ</w>
X -
k lear
carb ons</w>
ED F</w>
over sight</w>
Differ enz</w>
Do sis
h app
Aut om
ungsh ilfe</w>
kultu relle</w>
ent sch
we ap
re funds</w>
Rechts etzung</w>
ma r</w>
Sou thern</w>
expor ter</w>
For mu
D ün
Rec ycl
Sozial partnern</w>
organiz ations</w>
f un
elimin ation</w>
tox ic</w>
pro mp
ver ei
fra me</w>
besei tigt</w>
sub paragraph</w>
recogn ises</w>
der ungs
Sto ck
Schien en
thre ats</w>
Maß nahmen
leg e</w>
Gerä t</w>
leb enden</w>
ange kün
tri al</w>
kon kur
iz on</w>
twi ce</w>
h am
g in
Inkraft tretens</w>
f lichten</w>
einig t</w>
be fasst</w>
Gesund heit
own ers</w>
lo st</w>
18 0</w>
Memoran dum</w>
jus tification</w>
ing ung</w>
bu d
Wirtschaft spolitik</w>
Therap ie</w>
prüf ten</w>
hist ory</w>
gebo ten</w>
Ret tungs
apparat us</w>
T A</w>
fi ziert</w>
M W
tan gible</w>
fü ll
zieh t</w>
nah e</w>
bre m
wel chem</w>
um uli
po ol</w>
b le
elec tro
be trags</w>
IC CA
Absch lus
depos its</w>
Se e</w>
P AR
An teil
integr al</w>
ter -
P lac
rescu e</w>
import ation</w>
Konsolidi erung</w>
tr isi
resi stance</w>
over view</w>
ha em
Gu i
terror ist</w>
V ali
IM I</w>
rieb en</w>
Schutz maßnahmen</w>
plas ma</w>
olog isch</w>
y r
gradu ally</w>
bewer tungs
Wieder herstellung</w>
Mon ats</w>
GA P</w>
ini an</w>
F O
j ene</w>
ide mi
Schnit t
ber at
F ron
kon zip
S tim
3. 7</w>
3 6
allo c
punk ts</w>
ak e</w>
Wettbewerbsverzerr ungen</w>
griech ischen</w>
vacc ine</w>
sa y</w>
qualifi cation</w>
k einem</w>
ep idemi
beeinfl us
ed ge</w>
Chemik alien</w>
uneingesch ränkt</w>
UC ITS</w>
M ich
Tour ismus</w>
Ein vern
V al
1 19</w>
elimin ate</w>
I R</w>
in solvency</w>
L in
rech tfer
ben annt</w>
Ziel setzungen</w>
2 a</w>
mess er</w>
fac ed</w>
dec entral
auf merk
Verz ehr</w>
comprom ise</w>
be trau
S äu
K -
an cy</w>
Rechnung shof</w>
P C</w>
Ab hilf
Anmerk ung</w>
k ö
C E</w>
B SE</w>
pun kt
Ver gabe
Be endigung</w>
B en</w>
ou red</w>
exce eds</w>
Antidumping maßnahmen</w>
sor ge</w>
maßgeb lichen</w>
ER IC</w>
Arbeit ge
unter schieden</w>
ent gegen</w>
alisier ten</w>
A V
lea ving</w>
un law
us h
sk örper
h tt
er wiesen</w>
se em</w>
suff ered</w>
m es
jus tify</w>
gemein schafts
EW SA-
recipi ent</w>
n ar
angestre b
ru f</w>
Vollstreck ung</w>
Schul en</w>
t reiben</w>
Verstärk ung</w>
General direk
1 15</w>
un fair</w>
kategor ien</w>
Arznei mittels</w>
fol gung</w>
belon ging</w>
ag o</w>
ut y</w>
Euro- Währungs
erst ens</w>
Subsidiar itätsp
Alu mini
labor atories</w>
ex isti
entsprech ender</w>
Weiter bildung</w>
ro -
in si
exclu de</w>
erklär en</w>
zusammen zu
val idation</w>
n one</w>
freiwil lige</w>
ele mente</w>
gro und
c a.</w>
pos sibly</w>
har m</w>
Stad t
Ben utz
T est</w>
jün g
Gemisch ten</w>
A d-
Wirk stoffe</w>
belie ve</w>
Bed ingung</w>
Pack ungs
hervor gehoben</w>
z -
k tiven</w>
complet ely</w>
Min er
her stellen</w>
Verwen der</w>
Kl assi
se as</w>
Bio kraft
man ual</w>
Ver gleich
sho p</w>
Gewä ssern</w>
transl ation</w>
M angel</w>
Elektriz itäts
Ein satz
vergleich baren</w>
f and</w>
ein stimm
ein her
de ath</w>
Energiequ ellen</w>
divi ded</w>
tätig keit</w>
Doku menten</w>
g ur
Hor izon</w>
mon thly</w>
ktru m</w>
bioci dal</w>
Vol umen</w>
Mr s</w>
zufried en
sta g</w>
R ati
verk äufe</w>
Erläu terung</w>
Kommissions dienststellen</w>
Änderungsan träge</w>
Be weise</w>
di s</w>
Kreditinstitu te</w>
te ams</w>
sent ence</w>
cl asses</w>
work er</w>
ver lu
ra c
anzu wen
L og
wh en
on al</w>
unterschied licher</w>
rin ge</w>
cle aring</w>
reg re
entschei det</w>
di k</w>
when ever</w>
dis abl
I B
Anla ge
hy per
bo und
pa th
depar tments</w>
cere als</w>
beträch tliche</w>
inter action</w>
Zu weisung</w>
vergleich bare</w>
famili es</w>
Austri an</w>
dar gestellt</w>
ver teilung</w>
un re
beg innen</w>
Wettbewer ber</w>
Rahmen programm</w>
wirk lich</w>
Amster dam</w>
concentr ated</w>
Zu bereitungen</w>
Hol z</w>
Erd gas
sp ent</w>
regi stry</w>
Herzeg ow
lä t
heu tigen</w>
Yu gosla
Sem in
gleich ar
al ise</w>
z ell
sprech end</w>
Dep uty</w>
yst ems</w>
separ ation</w>
so verei
extrac t</w>
vari able</w>
ten d</w>
recall ed</w>
reinfor ced</w>
tari ffs</w>
compl ying</w>
consign ment</w>
Tschech ische</w>
Stat ute</w>
inform al</w>
Bi om
ver wendung</w>
gain ed</w>
Z oll</w>
sch we
Ori enti
visi ble</w>
it ten</w>
complex ity</w>
an c
W a
Ver brauchst
r ent</w>
U Z
Konvergen z</w>
ur gency</w>
ho c-
16 0</w>
intermedi ate</w>
Kohlen wasser
Einvern ehmen</w>
budge ts</w>
ga in</w>
bewus st</w>
Viel zahl</w>
Treibhausgas emissionen</w>
under stand</w>
smo oth</w>
k ü
ess enti
maxim al</w>
sozi o
N eigh
übersch ritten</w>
in- depth</w>
acc ess
Sti ll
stuf e</w>
fro zen</w>
de x
P ass
ti tu
Rechts sache</w>
K am
span ischen</w>
op ath
zulässi ge</w>
bel gischen</w>
per mits</w>
ond s
alum inium</w>
Ein bindung</w>
Bran chen</w>
vorläufi g</w>
an ian</w>
Um gang</w>
ser io
macro -
bene ficial</w>
pho to
gen e
I ris
her zustellen</w>
bour hood</w>
ab gesch
ts etzung</w>
T he
Führ ung</w>
por tu
c ut
klin ische</w>
ein ander
Neigh bourhood</w>
verbrauch s</w>
argu ments</w>
AIF M</w>
verstärk ten</w>
h on
ak tiver</w>
Person als</w>
short com
l ori
ob taining</w>
institu tionelle</w>
experi enced</w>
St ar
k ator</w>
best ätigen</w>
Klar heit</w>
sp ati
erhöh te</w>
correc tive</w>
hervor geht</w>
gleich er</w>
g or
an gen</w>
Ko ordin
Finanzhilf en</w>
kt oren</w>
t ten</w>
shortcom ings</w>
gebra chten</w>
aufmerk sam</w>
Nach weise</w>
W ort</w>
verbin dungen</w>
um ulation</w>
befu gt</w>
Rechts staat
Leit er</w>
ver fäl
go es</w>
Besonder heiten</w>
russ ischen</w>
plas tic</w>
En t</w>
zufrieden stell
erst mals</w>
r al</w>
Drit ter</w>
ein fach</w>
näh er</w>
Univers al
äuß erster</w>
vi erten</w>
Arbeit nehmer
compo unds</w>
combus tion</w>
ann ex
mu ster</w>
inner staatlichen</w>
men ting</w>
rä te</w>
vertre ter</w>
zö lle</w>
schaf tl
gül tig</w>
ge st
ann ually</w>
empfän ger</w>
regul ators</w>
enha gen</w>
Rent en
under stood</w>
erneuer barer</w>
pro sper
indi katoren</w>
dela ys</w>
can cell
Kapit els</w>
tion ary</w>
er arbeitet</w>
sp or
m y</w>
k lu
arbeit ete</w>
plac ebo</w>
Zu bereitung</w>
Qu er
Her kunft</w>
el -
do or</w>
CA R
Abweich ung</w>
Unter schied</w>
sear ch</w>
reser ves</w>
er fassen</w>
disabl ed</w>
di a
größ e</w>
gefähr det</w>
beru h
T il
Prog no
Govern ance</w>
Rand lage</w>
Her an
etwa iger</w>
Städ te</w>
Stock hol
Portu gu
gain s</w>
dis h</w>
S G
vail ing</w>
pre siden
S par
Mol do
vi able</w>
herit age</w>
P hili
genü gend</w>
Wieder ein
Gewin n</w>
forth coming</w>
L a</w>
moder ate</w>
co se</w>
Vermögens werten</w>
Mel dungen</w>
p esti
f r</w>
Brut to
den z</w>
Di agno
pro ve</w>
Taiw an</w>
bewähr ter</w>
ak ts</w>
v .</w>
o ck</w>
sh ilfe</w>
a gements</w>
k op
eu ch
registri ert</w>
ko st
re vo
St örungen</w>
Mehrwert steuer
unter lagen</w>
ob il
flä chen
ad mission</w>
st ungs
kl asse</w>
Chair man</w>
nah e
measu rements</w>
befin dlichen</w>
NC B</w>
Einw ände</w>
1 5.
restric t</w>
Anpass ungs
kün st
Prä vention</w>
f ang
Om bud
househol ds</w>
Wal d
Straf verfol
I SA</w>
Erwar tungen</w>
Mein ungs
öpf ung</w>
dead lines</w>
Ar men
dri vers</w>
design ate</w>
übermittel te</w>
du s</w>
der te</w>
ul l</w>
alisier t</w>
w ishes</w>
in duc
entri es</w>
Gebiet skörper
p lic
entscheiden de</w>
bewähr te</w>
Vertrags verletz
o u</w>
iden tical</w>
un employed</w>
land ing</w>
Portugu ese</w>
infra struktur</w>
ech ten</w>
e -</w>
Vorsit zes</w>
Korre ktur
wachs enden</w>
h t
correspon d</w>
Erwägungsgrün den</w>
marg ins</w>
gen d
expan sion</w>
b ab
Ver wertung</w>
tel n</w>
contain ers</w>
Wahl en</w>
Minu ten</w>
Zu verlässi
tu s</w>
redu zieren</w>
be zeichnung</w>
Iris h</w>
ma ster</w>
rem edy</w>
Staatsan gehörigkeit</w>
genu g</w>
exce eded</w>
Me dien
Be aufsich
ern annt</w>
I .</w>
or gan</w>
com it
Sozial ausschusses</w>
Em ission
Art .</w>
pil lar</w>
B re
N ä
zugelass ene</w>
ziel l</w>
in zwischen</w>
h ard</w>
subsi dis
ess el
avi an</w>
cor d</w>
addres ses</w>
pro li
Um wand
Konform ität</w>
F F</w>
investi eren</w>
Ad- hoc-
pesti ci
volun te
gefähr licher</w>
bel egen</w>
aus gelegt</w>
stärk sten</w>
ger ü
exp and
disp utes</w>
b un
R ek
et t</w>
ti tel</w>
der jenigen</w>
B S
7. 1</w>
nach weis
Besch affung</w>
b res</w>
al ert</w>
Imm un
phy s
befugn isse</w>
all -
Gebi ets</w>
erio de</w>
Verbraucher schutz</w>
wichtig es</w>
ra sche</w>
care fully</w>
Spe zial
Malay sia</w>
Fehl er</w>
wür fe</w>
ri gh
ly mp
N u
bu chs</w>
auf gaben</w>
Sw iss</w>
Zö lle</w>
P ausch
it en</w>
8 0
sei gn
gener ating</w>
Interessent räger</w>
Bau m
portu gi
lei den</w>
credi tors</w>
Veranstal tungen</w>
li an</w>
h äre</w>
beding te</w>
entru sted</w>
auf gestellt</w>
Auf zeichnungen</w>
Ur he
Ober grenze</w>
Bra si
ref us
coun t</w>
NC Bs</w>
hal ts
e ously</w>
de struc
IC ES</w>
fer enz
employe e</w>
Terror ismus</w>
vor schlagen</w>
wen ige</w>
mitig ation</w>
al th</w>
P u
Ban kno
ver wiesen</w>
ergänz ende</w>
min derung</w>
Port foli
Vorr ang</w>
system ic</w>
frequ ently</w>
ähn lich</w>
li ghts</w>
aus schließ
an zusehen</w>
accur acy</w>
Rückk ehr</w>
propos ing</w>
IK T</w>
sh ar
ar ios</w>
18 5</w>
c umul
Ben ch
extrem ely</w>
an en</w>
Temperat ur</w>
ent standen</w>
Mu ster
wiederhol t</w>
Gül tigkeit</w>
E I</w>
Techn iken</w>
K ali
sons tiger</w>
negoti ated</w>
continu ity</w>
Mindestan forderungen</w>
initi ativen</w>
co ated</w>
util isation</w>
ion s
fe eding</w>
weis ungs
constit uted</w>
Atlanti c</w>
zweit er</w>
an alogue</w>
See verkehr</w>
Geb ur
nat ur
mod ule</w>
Kon flik
prog no
konzentri ert</w>
ir re
Wirtschaftsbetei ligten</w>
erlau ben</w>
annex ed</w>
Lt d</w>
über steigt</w>
star t-
second ly</w>
NZ Ben</w>
ICA O</w>
I O
sch äd
st rah
Sal mon
us ual</w>
n etzen</w>
hy po
es en</w>
basi ert</w>
7 0
formul a</w>
ausge weit
Sen dungen</w>
Beitrit ts</w>
M Hz</w>
A P</w>
är er</w>
mehr jährigen</w>
D u
fil m</w>
and el
a p</w>
Um setzungs
st au
natür lich</w>
EP A</w>
Ab fällen</w>
conci li
W un
fin ds</w>
experi ences</w>
harmonisier te</w>
direc ted</w>
Außen grenzen</w>
17 8</w>
pro gra
da e</w>
f lich
ehemal igen</w>
arch it
II -
Herzegow ina</w>
Entschä digung</w>
mul tin
abges ehen</w>
priv acy</w>
p ass</w>
skill ed</w>
gestal tet</w>
gel ang
coll ect</w>
tiv ation</w>
in sofern</w>
up gra
sur plus</w>
orient ed</w>
Sa at
S D
ent s
tra ders</w>
haz ard</w>
w ander
viel fäl
Beaufsich tigung</w>
p age</w>
H I
zo l</w>
refer ring</w>
le ments</w>
is -
fü llen</w>
br e</w>
A IF</w>
Grund satzes</w>
excep tions</w>
über steigen</w>
her gestellten</w>
Versch lech
tackl ing</w>
Brazi l</w>
se eks</w>
jähri ge</w>
auf nehmen</w>
1 18</w>
z z
f at
wa ffen</w>
n ummern</w>
stuf en</w>
ränk ter</w>
kombini erten</w>
Veranstal tung</w>
EC E</w>
ver arbeitet</w>
repe ated</w>
over come</w>
Plen um</w>
Ger ichts</w>
äuß ern</w>
bu ch
p en</w>
Liquidi täts
expla in</w>
p unkten</w>
consul ting</w>
einzu halten</w>
ar in</w>
r ated</w>
Be wil
scrutin y</w>
bor ro
Besch luss
s wine</w>
alo g</w>
verab reicht</w>
erfolgre iche</w>
Sch we
Erläu terungen</w>
modul es</w>
W erten</w>
Mo tor</w>
un berührt</w>
aushal tsp
auf rechter
Ab stand</w>
ris k-
mat urity</w>
erfol g
anwend baren</w>
9 9
nutz er</w>
Gleich gewicht</w>
g aps</w>
sec ured</w>
rie f</w>
vor genannten</w>
us -
ne ver</w>
w olle</w>
freiwil ligen</w>
Ge wer
wirk ungs
ord ent
ex tra</w>
R IP</w>
htt p</w>
ausge wiesen</w>
Zielvor gaben</w>
Gesetz es</w>
A sia</w>
surve ys</w>
leaf let</w>
condi tional</w>
Gesam tz
14 0</w>
inhi bit
P M
12 6</w>
reason ably</w>
transe uropäischen</w>
success fully</w>
man i
campa ign</w>
consign ments</w>
C lo
F rank
ben de</w>
r are</w>
mark eted</w>
unmittel baren</w>
k auf
correc ted</w>
chec ked</w>
W affen</w>
D ring
ß es</w>
gl omer
Europ eans</w>
Aus gang
Ab gaben</w>
voraus sich
t yp</w>
Sek und
p ha
Stell en
st örung</w>
m ation</w>
eng leich
Verpflich tungs
Mass en
Invest ment
fest stellen</w>
dispat ch</w>
Ent fer
Z i
per sist
ein bezogenen</w>
Jugen d</w>
s wi
niedri gen</w>
geschwindi gkeit</w>
ausgewähl ten</w>
zunehmen de</w>
n d</w>
Ser bia</w>
Drit tel</w>
shi pment</w>
nahe zu</w>
Umstrukturier ungsplan</w>
limit ing</w>
ein halten</w>
counter party</w>
S we
Hau t</w>
veröffentlich ten</w>
du plic
d an</w>
7 00</w>
2. 7</w>
produ kt</w>
integr ate</w>
. A.
zw in
vorüber gehend</w>
In seln</w>
Zwec k
Bes or
es c
beit rag</w>
as e-
Erzeugn isses</w>
thre e-
Blu t</w>
15 1</w>
fe ver</w>
ar ding</w>
Leistungs fähigkeit</w>
un due</w>
standar di
h l</w>
UZ Ü</w>
Regel ungs
Einsch ätzung</w>
exhaus t</w>
Streck en</w>
re tain</w>
industri elle</w>
getätig t</w>
vin a</w>
umwelt freund
defi z
pro je
hygi ene</w>
Organ en</w>
weap ons</w>
erg abe</w>
c ab
Führ ungs
verstän dlich</w>
pat h</w>
agen turen</w>
geneti sch</w>
erstat ten</w>
er em</w>
dis advanta
coll ecting</w>
Haushaltsp lans</w>
V A</w>
Pausch al
sol vent</w>
reli gi
gew inn
Haf en</w>
vorran gigen</w>
seg ment</w>
or te</w>
Unions markt</w>
Brem s
Mit wirkung</w>
sign ing</w>
16 .
Zulass ungen</w>
beige fü
Aussch üsse</w>
ör tlichen</w>
st abilität</w>
diagno sti
app reci
säm tlicher</w>
y a</w>
typ en</w>
hand els</w>
fi bres</w>
be fre
MwSt -
er ror</w>
L ond
verbess erte</w>
u pper</w>
Kl är
All gemein
qualifi zierte</w>
re ality</w>
ele v
in en
ahr t</w>
B B</w>
struktu rellen</w>
f än
Ver weis</w>
M ens
einzu beziehen</w>
distinc tion</w>
1 13</w>
Z entrum</w>
Ph asen</w>
Kon jun
Diskus sionen</w>
tain s</w>
concili ation</w>
Wechsel kur
War ent
st ech
Kun den
tätig keiten</w>
beeinflus st</w>
z ed
ver wand
sti mmen</w>
sorgfäl tig</w>
leit linien</w>
größ t
Aquakul tur</w>
Mens ch</w>
K ün
G las
proce eding</w>
verein baren</w>
schei dung</w>
W ein</w>
Ab satz
d ämm
demo graphic</w>
con stant</w>
Sensibil isierung</w>
rechtfer tigen</w>
mäßig keiten</w>
medizin ischen</w>
Kommissions mitglied</w>
Be fähig
mi kro
Ver brief
Kon tingen
I B</w>
la den</w>
geschütz ten</w>
ein zusetzen</w>
ver trags</w>
particul ars</w>
men tierung</w>
mat ely</w>
refl ecting</w>
ff er</w>
li t</w>
Mol da
Kan ada</w>
Fortsch rit
Bosn ien</w>
war n
o live</w>
bereit stellen</w>
vorran gig</w>
Stand ort</w>
Stand ard</w>
Gui del
vege tables</w>
leit et</w>
fin e</w>
P lans</w>
Auf nahme
vi gil
ac adem
I U
2 90</w>
o vina</w>
inv ites</w>
Ein kommens
ti gem</w>
mon at
ersuch te</w>
enti rely</w>
calcul ations</w>
fo stering</w>
resi due</w>
d rit
technologi e</w>
hei ght</w>
connec tions</w>
Defini tionen</w>
v ise</w>
F F
p ack</w>
äm ie</w>
th ings</w>
detec ted</w>
de ment
bereit gestellten</w>
Herzeg ovina</w>
s agt</w>
rom bo
contain er</w>
an meldung</w>
EG F</w>
2 20</w>
ob vi
m alen</w>
numer ous</w>
concentr ate</w>
appro ve</w>
Lebens -</w>
L änder
Gel der</w>
absten tions</w>
Tier gesundheit</w>
Kompon ente</w>
on y
13 08</w>
expres sion</w>
termin al</w>
ment ar
m bo
Not fall
Chan c
tel l</w>
en do
B V
Aus -</w>
psy ch
e able</w>
erg rei
clarifi ed</w>
Pak istan</w>
mo uth</w>
Kop ie</w>
fli ghts</w>
L O
promo ted</w>
B T</w>
wach sen</w>
stu die</w>
demonstr ation</w>
d le</w>
Mo toren</w>
Gewä sser</w>
st ro
si ed
regi sters</w>
kürz lich</w>
histor ical</w>
draf ting</w>
veränder t</w>
dist ur
K oll
3 1.
un ions</w>
kategor ie</w>
hab ens</w>
Ministeri al</w>
nutz ung</w>
Erforder nisse</w>
Arznei mittel
An satzes</w>
Abweich ungen</w>
zw ischen
wel come</w>
ma gn
Re parat
un likely</w>
sozi al</w>
re ll
Union sebene</w>
Erneu erung</w>
out comes</w>
Pati ent
Binnen schiff
8 4
th i
intermedi aries</w>
bran ches</w>
a sts</w>
is ite</w>
effek tive</w>
Bezug nahme</w>
mechan ical</w>
19 88</w>
purch asing</w>
offici ally</w>
enn ungs
coun ter</w>
Ver trieb</w>
R D</w>
Phar mako
Moldo va</w>
ro lle</w>
engleich heit</w>
refus al</w>
enjo y</w>
Vor schrift</w>
Ver such
Nutz ungs
2 1.
spati al</w>
klar en</w>
vor schlags</w>
Gener ation</w>
exam ining</w>
ef ä
siden tin</w>
konzentr ation</w>
He ads</w>
Dar stellung</w>
spre ise</w>
im possible</w>
Famili e</w>
befre it</w>
EI F</w>
record ing</w>
CR R</w>
erzeu gt</w>
Gebietskörper schaften</w>
19 87</w>
sy ringe</w>
rit ze</w>
ox y
erstat tet</w>
Unregel mäßigkeiten</w>
materi ellen</w>
den d</w>
NR O</w>
Be arbeitung</w>
ungsp lans</w>
sp ür
m y
f ließen</w>
essenti ally</w>
Zusch üsse</w>
indi rekt</w>
gesetz lichen</w>
gebil ligt</w>
einstimm ig</w>
L är
j ener</w>
entfer nt</w>
bewäl tigen</w>
T ali
6. 3</w>
argu ment</w>
T C</w>
timet able</w>
en sat
diff er</w>
den jenigen</w>
constitu tional</w>
gui de</w>
emphas ised</w>
be ef</w>
ausführ liche</w>
Wun sch</w>
koordini ert</w>
aus wär
s -</w>
le ads</w>
fl uss
Risiko s</w>
Ber ichtsp
er mäßig
re tained</w>
Verletz ung</w>
ad ed</w>
Vor sch
R adi
ad ding</w>
ne ar</w>
Famili enan
Besch werde</w>
an geben</w>
Durch stech
Be ein
un necessary</w>
posi t</w>
m assi
form ally</w>
erk ennt</w>
er adi
wirtschaf ten</w>
wer ks</w>
penal ty</w>
komp et
geziel te</w>
vi al</w>
Erwä gungen</w>
Er st
al t
T rieb
N ACE</w>
unzu reichend</w>
Sch ätzung</w>
Durchstech fla
wand els</w>
pro sec
geregel ten</w>
G ar
D ex
.... ....
sol venz
inter fer
fre ed
contam ination</w>
Netz en</w>
F ö
geneti c</w>
be stand
Interessen kon
G as</w>
Guidel ine</w>
gesam t
de posit</w>
si eren</w>
beruf en</w>
auf weist</w>
pos it
Zentral banken</w>
ge fü
comp ensat
st ations</w>
Liefer ungen</w>
Ak tion
multilater alen</w>
Verkehr s</w>
low est</w>
frame works</w>
Inspek tionen</w>
ther ein</w>
self- employed</w>
m atic</w>
ab road</w>
Sp ann
kt ro
voll er</w>
rec eption</w>
prüf te</w>
EP AR</w>
An lass</w>
überschreit et</w>
tern s</w>
si m
beh el
Ministeri um</w>
Komp lex
Gebäu den</w>
zu gehörigen</w>
ran ging</w>
gerech te</w>
d ging</w>
cl ature</w>
Nahrungs mittel
ß ten</w>
er lässt</w>
X II</w>
Chanc engleichheit</w>
ä st
complain ant</w>
S ing
pre ci
finan z
Bereit schaft</w>
vol ati
dement sprechend</w>
d lichkeit</w>
blo ck
Quo te</w>
wer tes</w>
k umul
k le
Generalsekre tär</w>
hinzuge fügt</w>
dis ability</w>
Counc ils</w>
Beförder ungs
e a</w>
bewahr en</w>
k W</w>
Re de</w>
re tail
freed oms</w>
cour ses</w>
ent steht</w>
p lo
Ber lin</w>
stärk eren</w>
f lan
Pap ier</w>
gene tically</w>
Nomen clature</w>
employ er</w>
disadvanta ged</w>
cy cles</w>
Bet reu
steuer liche</w>
r aten</w>
V IS</w>
Famili en
sustain ed</w>
satisfac tion</w>
Verab reichung</w>
zentr aler</w>
hol en</w>
Mig ranten</w>
Aus gaben
sen ior</w>
mith ilfe</w>
um gehend</w>
Vi et
KM U-
Hor izon
ro aming</w>
gli eder
Institu ts</w>
Geltungs dauer</w>
sol ar</w>
acc umul
il lus</w>
Weit ergabe</w>
Molda u</w>
trans mit</w>
neu esten</w>
erweit erten</w>
Typgenehmig ungs
stakehol der</w>
por tal</w>
by- products</w>
beschle uni
ap art</w>
Erwer b
besit zen</w>
über prüfung</w>
gesell schaftliche</w>
Cha ir</w>
spartn er</w>
mäß iger</w>
gl .</w>
Z uf
zi gen</w>
sp ac
h a</w>
bedeut enden</w>
Ar gen
w u
h ä
besit zt</w>
Sub ventionen</w>
Gerich te</w>
EE S</w>
ö ster
K u
li hood</w>
Schad ens
Rund funk
R ad
Ber g
mü n
Stu dien
Durchführungs beschluss</w>
spartn er
inn ing</w>
accomm od
ac ute</w>
Konzep ts</w>
ver lang
fuhr en</w>
fest e</w>
c olo
Umf angs</w>
obser vation</w>
hin zu</w>
s we
ein zuleiten</w>
nation ales</w>
Metho dik</w>
Ein setzung</w>
län dliche</w>
evalu ations</w>
An weisungen</w>
1. 9</w>
3 7
p um
bur dens</w>
bl ack</w>
hy bri
effizi enz
Jahr zeh
re affir
negoti ating</w>
Mob ilf
aus es</w>
Swe dish</w>
Li sten</w>
Hei z
l ern</w>
de ter</w>
aggreg ate</w>
in ary</w>
be antwor
vor anzu
ur s
gelang te</w>
be dar
pre ad</w>
defici encies</w>
bel ast
Größ en
an gehören</w>
V C</w>
Rechts behel
Gü tern</w>
fem ale</w>
encour ages</w>
under lines</w>
geb au
d rei
campa ign
Geld wä
visi bility</w>
er end</w>
is er</w>
bit tet</w>
beginn t</w>
I G
Geschäft stätigkeit</w>
thin ess</w>
oper ates</w>
Schrif t
En gl
ut ro
h en
ein ameri
perio dic</w>
Di versi
w issen</w>
aufrechter halten</w>
uner lässlich</w>
gewähl t</w>
Zertifik ate</w>
Sozial ausschuß</w>
ver wahr
a xis</w>
top ics</w>
ver trägen</w>
u ell</w>
far ms</w>
tar y-
kun den
Gesell schafts
ro b
europa .eu</w>
Tabl etten</w>
coordin ating</w>
char ging</w>
G s</w>
Beit rags</w>
Aus nahme
hei m
gradu al</w>
T AC
tig ter</w>
Ri o</w>
D ig
auf kommen</w>
Europ a
natür licher</w>
n on
Entschei dung
st amm
konkur ri
clo sing</w>
einzel staatlicher</w>
car ds</w>
uner wünsch
individu ally</w>
correspon ds</w>
äl teren</w>
verwirk lichen</w>
gan ze</w>
distor tion</w>
aqu atic</w>
Gläub iger</w>
internation ally</w>
dro me</w>
auf gesch
sug gest</w>
ri ch</w>
fre m
X III</w>
frü her</w>
bra chten</w>
B or
fas ste</w>
comp rise</w>
überzeu gt</w>
niedri geren</w>
f ung</w>
beobach ten</w>
Mod elle</w>
Formu lierung</w>
qual ifying</w>
L IF
äuf t</w>
vol u
rul ing</w>
bi d
Verwaltungs aufwand</w>
Mitgliedsta ates</w>
Bel ast
Aus wirkung</w>
20 50</w>
wer ken</w>
se e
jeg liche</w>
US D</w>
zu mab</w>
mer ken</w>
Mehrwert steuer</w>
Hochschul en</w>
Ben ennung</w>
- off</w>
up dating</w>
unser en</w>
stell enden</w>
plan e</w>
Steuer be
Mit te</w>
weg e</w>
proli fer
niedri g</w>
fi bre</w>
Bar ro
An sätze</w>
di erungs
at a</w>
Verschlech terung</w>
An mel
st örungen</w>
Secre tary-
S E
Kommissions vorschlag</w>
Bosn ia</w>
über wiegend</w>
basi erten</w>
Beihilfer egelung</w>
lit er
coun tr
Tel ef
ta -
ing -up</w>
con tested</w>
ste uro
For tsetzung</w>
ti erungs
po sts</w>
an geht</w>
Secretary- General</w>
S per
organis iert</w>
minim ise</w>
bio fuels</w>
Einwander ung</w>
Samm lung</w>
6 0
eingesch ränkt</w>
. 2</w>
reli ability</w>
integr ating</w>
defini erten</w>
cli ent</w>
Z ell
uni versity</w>
reci proc
beschleuni gen</w>
Wachst ums</w>
Vor bringen</w>
Voll endung</w>
Hy gi
propor tional</w>
vorh erigen</w>
invent ory</w>
erheb ung</w>
bilater ale</w>
L atin</w>
di spar
Brasi lien</w>
A vi
unterbreit en</w>
gemein schaftlicher</w>
Gemeinschafts vorschriften</w>
erweit ert</w>
Kon s
früh zei
Besitz stands</w>
thin k</w>
rand om
gew issen</w>
di sin
adap ting</w>
fl ying</w>
tl auf
bel astung</w>
auf sicht</w>
V ir
w ehr</w>
vi de
qual ify</w>
clarifi cation</w>
chec king</w>
lich erweise</w>
tt on</w>
gesch ehen</w>
energi e</w>
An trägen</w>
mp tions</w>
fäl lig</w>
Jahres bericht</w>
zei gte</w>
mut s
interessi erte</w>
behin dern</w>
m ich</w>
inf ek
fea sibility</w>
Paragra ph</w>
co- financing</w>
Rechtsstaat lichkeit</w>
organis men</w>
Gen ossen
von einander</w>
new ly</w>
deut sche</w>
I D</w>
confir ms</w>
S ah
völ lig</w>
Bo tschaf
z ün
4 5
k el
flo or</w>
Eisenbahn unternehmen</w>
Aus künfte</w>
ver lassen</w>
gesp eich
einzel staatliche</w>
carri age</w>
aus bildung</w>
4. 7</w>
pregn ant</w>
er maßen</w>
be zeichneten</w>
Zer tifizierung</w>
gemeinsam em</w>
Verk nüpf
verbin dliche</w>
deriv ative</w>
s w
P e
ungsp ra
beit räge</w>
G abe</w>
F C</w>
l ings</w>
erör tern</w>
über tragung</w>
engine ering</w>
Anrei z</w>
zer o</w>
cap abilities</w>
avoi ding</w>
Ver ordnungs
durch aus</w>
M ill
Gesprä che</w>
Instand haltung</w>
Wissen schaftl
3 96</w>
biom ass</w>
Tari f
OGA W</w>
wes ens</w>
speci fying</w>
Wettbewerbs bedingungen</w>
F rieden</w>
forwar ded</w>
T T
einzel ner</w>
Packungs bei
ausreich enden</w>
Bezieh ung</w>
zu stand</w>
des irable</w>
unver ändert</w>
ko hol</w>
finanzi eren</w>
at mosp
Fil m
Oli ven
Einsch ränkung</w>
Besor gnis</w>
in stit
c ast</w>
bot tl
be fördert</w>
w ines</w>
com ment</w>
at e-
ari b
erwor ben</w>
deteri oration</w>
cap ability</w>
So ftware</w>
Qu ar
wid th</w>
offen sichtlich</w>
pass ed</w>
off -
eradi cation</w>
environment ally</w>
Wir t</w>
lin e
C ol
verblei benden</w>
eas y</w>
chin esische</w>
form ing</w>
J oh
Darleh ens
ref use</w>
ländi scher</w>
rit ät</w>
kommerzi ellen</w>
bel äuft</w>
Reg ier
Haushal ts</w>
Feder ation</w>
tempor arily</w>
kol le
Unions recht</w>
radi ation</w>
nitro gen</w>
gleichwer tig</w>
L .</w>
Kon fli
19 80</w>
ss it
public -
Phili pp
Beh äl
Absch affung</w>
Pri me</w>
on- the-
den om
n der</w>
fif th</w>
ban kno
pro t
Trans aktions
comp ete</w>
Al ger
zweck mäßig</w>
there after</w>
har d
Mar ke</w>
zeugn isse</w>
organis ator
a ster</w>
Spe ktrum</w>
fir stly</w>
campaign s</w>
abge deckt</w>
erg y</w>
Besch luß</w>
maxim ale</w>
dis ku
Pro be</w>
assu med</w>
Ex port
y n
ausführ ende</w>
Pap ier
Georgi a</w>
Durchführungs vorschriften</w>
zy kl
beauf tragt</w>
Ac cord</w>
n te</w>
Sti ck
säm tlichen</w>
schrif tliche</w>
merk male</w>
F l
sem i-
begrün deten</w>
B N
zeu ge</w>
priv il
ba res</w>
O P
Frem den
3 a</w>
ver teilt</w>
form ed</w>
EFTA- Staaten</w>
Beobach ter</w>
aus eln</w>
comp rising</w>
Konz ession
whe el</w>
sit z
interven tions</w>
Z eiten</w>
Schul den</w>
Pflanzenschutz mittel</w>
C I</w>
real istic</w>
neu ar
Proz esse</w>
Finan zierungen</w>
vorh erige</w>
all ing</w>
Ver folgung</w>
Ernähr ungs
reco ver</w>
Krank enh
Antrag s
sat lan
s enti
illu str
ad just</w>
Rei fen</w>
Bil d</w>
ver st
to t
Rechts akten</w>
valu able</w>
mer cur
da iry</w>
Kraft fahrzeu
reinfor cing</w>
grenzübergreif enden</w>
b one</w>
versch är
thal tungen</w>
komm un
Rechts rahmens</w>
se eds</w>
eck sil
Stichpro ben
SO C</w>
Kü hl
geb ungs
dist ort</w>
Chi le</w>
führ ten</w>
amp f</w>
A pothek
Menschen rechts
Antragstell ers</w>
ent ail</w>
W and
Ord nung</w>
s ag
ch ap
Injek tion</w>
ein genommen</w>
derar tigen</w>
thre at
besteu erung</w>
be geg
ansässi g</w>
Trans aktion</w>
Kor ruption</w>
D V
A ch
5. 5</w>
12 2</w>
z ellen</w>
ru b
construc ted</w>
neg li
kontrolli eren</w>
Versicherungs -</w>
P ET</w>
fahr ts
einzur ichten</w>
Wohl stand</w>
Packungsbei lage</w>
Ein lagen</w>
rec ur
bro ken</w>
vorange gangenen</w>
mess ages</w>
P P</w>
hin ter</w>
ges enkt</w>
unanim ously</w>
Roh stoffe</w>
ver min
pic ture</w>
in adequate</w>
möglich er</w>
In teg
zäh lt</w>
rep lies</w>
irregul arities</w>
Ko operation</w>
II a</w>
Fried ens
e tho
3. 8</w>
geschätz t</w>
destruc tion</w>
ch lori
aus wirkungen</w>
Zuständi gkeits
negoti ation</w>
fort gesch
ag ue</w>
Handel sp
ein mal
altern atives</w>
Zivil luft
tun a</w>
Ab nehmer</w>
durchschnit tlich</w>
Klima wandels</w>
Gemü se</w>
fil l</w>
avoi ded</w>
gen ossen
su ms</w>
ci um</w>
Komplex ität</w>
mus ste</w>
W h</w>
Tox izität</w>
gefähr den</w>
er arbeiten</w>
besch ei
Proben ah
ox ide</w>
fair en</w>
SO N</w>
Pul ver</w>
vorüber gehende</w>
stric tly</w>
steuer lichen</w>
ent fallen</w>
d essel
gesti egen</w>
12 -
we b</w>
t ings</w>
indirek ten</w>
um setzen</w>
u e
dessel ben</w>
bek annt
Stif tung</w>
zwei mal</w>
kon fron
verein fachen</w>
rück en</w>
energ y-
it ment</w>
Tex til
ier ende</w>
gü ter</w>
struktu relle</w>
Gemeinschafts rechts</w>
le pp
je op
T ie
7. 2</w>
ton ne</w>
pollut ants</w>
effici ently</w>
basi eren</w>
3 A
vis its</w>
ver hältnis</w>
respec ting</w>
mo ved</w>
isch -
gewerb liche</w>
Dem on
Beobach tung</w>
öster reich
exerc ised</w>
Ents or
Betrieb sin
erg riff
dis zipl
begrenz en</w>
P I</w>
sit zes</w>
popul ations</w>
g one</w>
tel s</w>
sex ual</w>
e arn
ak ter
Mittelme er</w>
f s
ver suchen</w>
Dienst es</w>
sozi al
kor rigi
Sozial es</w>
wel t</w>
schrif tlichen</w>
ap point</w>
h ec
ach se</w>
V öl
non- EU</w>
ill ary</w>
R E</w>
Geschäf tsp
li vest
E X
C oll
Be weis
Ü NB</w>
wor th</w>
ak te
confir mation</w>
at en
Gewerk schaften</w>
rest ore</w>
Norm ungs
ver sammlung</w>
r ine</w>
ci ti
berech nen</w>
Investitions bank</w>
tran satlan
N 1</w>
sch t</w>
la stly</w>
la under
d ently</w>
tra t</w>
le um</w>
fi gh
c .</w>
In flu
Begriffs bestimmungen</w>
pre domin
pharmaceu tical</w>
persön lichen</w>
Wer tsch
in ate</w>
b ahn</w>
L ück
kl assen</w>
hydro carbons</w>
wi des
TA C</w>
transpor ted</w>
dem ands</w>
Alban ia</w>
über dies</w>
indirek te</w>
en cing</w>
P D</w>
10 ,
m ack
F as
lev y</w>
M us
Kab el
ob enen</w>
angemel det</w>
et ab
B ahn
cop ies</w>
Anmerk ungen</w>
than ks</w>
grenzübergreif ende</w>
livest ock</w>
inter connection</w>
adi ly</w>
Ur sachen</w>
ten sität</w>
fol ge
beihilf efä
ator ien</w>
an teil</w>
T 2
Nieder lass
tabl ed</w>
Rin d
individu elle</w>
beit rä
bed auert</w>
Schul ung</w>
sti ch
or -
like lihood</w>
ga ther
ausgeweit et</w>
L G</w>
K auf</w>
verkauf en</w>
hydro gen</w>
S il
wides pread</w>
tiv itäts
1 19
vir in</w>
ologi es</w>
le vi
erhiel t</w>
autonom ous</w>
Norm ung</w>
k ommission</w>
id ated</w>
di g</w>
as ks</w>
aran t
sh ore</w>
Sch wä
wissen schaftlicher</w>
san itary</w>
nicht -
confer ences</w>
ye arly</w>
sorti um</w>
particip ant</w>
17 .
road map</w>
fulfil ment</w>
au c
nachhal tiges</w>
Erd gas</w>
13 6</w>
ww w
ben annte</w>
be vorzu
Rück stellungen</w>
weak nesses</w>
mbo l</w>
ex ac
dienstleist er</w>
Do sen</w>
v as
atis ation</w>
Ser bien</w>
susp ected</w>
Zuverlässi gkeit</w>
Balk ans</w>
Aussch reibungen</w>
0, 2</w>
ulti mately</w>
nieder ländischen</w>
correc tly</w>
Gebur ts
1 17</w>
li eb
bek ann
Pa ket</w>
Aufnah mem
20 20-
on s
endor ses</w>
Ges ichtsp
co tton</w>
20 21</w>
knowle dge
V ide
sch ätz
la stung</w>
bezieh ungsweise</w>
ar ti
un nö
ge wal
beiträ gt</w>
Steuerpflich tigen</w>
Sachverständi ge</w>
mm et
gew is
erwer ben</w>
assozi ierten</w>
Vis um
Flag gen
ain s</w>
occur s</w>
de tri
äl tere</w>
zei gten</w>
schaf tsp
ko di
städ tischen</w>
humanit ären</w>
counter f
S h
Durchschnit ts
D ol
v gl.</w>
erstreck t</w>
angestre bt</w>
Stim men
Nicht ein
L V
sor i
Quo ten</w>
Geflü gel</w>
tz us
projek ten</w>
kurz em</w>
aff ects</w>
Internet -
ge liefert</w>
ampag nen</w>
Leit ungs
Kin d</w>
Gem ein</w>
glich er</w>
Innov ation
Gesamtz ahl</w>
Erzeu gungs
C E
versch lech
lieg ende</w>
gem it
excell ence</w>
Geschäf t</w>
citi zen</w>
Risiko positionen</w>
head ings</w>
In solvenz
Forsch er</w>
st opp
ati sierung</w>
enlar ged</w>
wus st
Zusammen schluss</w>
Ar muts
konfron tiert</w>
hy d
st ück</w>
land wirtschaftlicher</w>
intra- Community</w>
Rechnungs legungs
la sting</w>
ins ur
Fang möglichkeiten</w>
C al
Mitglied schaft</w>
work force</w>
fore sts</w>
C s</w>
gezahl ten</w>
Stockhol m</w>
S IR
P a</w>
Organis men</w>
neutr al</w>
P H
verwirk licht</w>
un be
sp are</w>
kö mm
be ste</w>
ME S</w>
Frei handels
sin fra
kor rek
genehmig te</w>
fiel en</w>
eri ka</w>
be wirkt</w>
Be wusst
bek annten</w>
ty res</w>
ein führen</w>
Tun isi
Gef ähr
F i
ie ties</w>
Ver netz
Kyo to-
Be fra
tax pay
d ine</w>
Lond on</w>
schiff e</w>
ou ter
Kenn zeichn
ET S</w>
konsul tiert</w>
d oppel
ati scher</w>
Stabilitäts -</w>
übergreif ende</w>
zi r
untersuch ungen</w>
garanti ert</w>
Konzentr ationen</w>
sp eich
Les ung</w>
13 9</w>
so far</w>
aktiv itäten</w>
ungs grundlage</w>
mit arbeit
ann ehm
prospec tus</w>
it gliedsta
gewonn enen</w>
Hau t
Gewe be</w>
Bil d
im balances</w>
beschäf tigt</w>
Oper ation</w>
west lichen</w>
a gli
offic ers</w>
Sch war
16 9</w>
sch afft</w>
gefä hr</w>
Finanz krise</w>
rich tigen</w>
broad ly</w>
zus timmen</w>
launder ing</w>
in sofar</w>
fla vo
el se
an y
Mittelmeer raum</w>
Met abol
assu mptions</w>
re views</w>
mid- term</w>
C B
ver stoßen</w>
V N-
ges etz</w>
care er</w>
ö ch
gering eren</w>
Integr ations
outer most</w>
Vertrag es</w>
Direkt zahlungen</w>
Com pu
Ak kredi
12 1</w>
tissu e</w>
Umwand lung</w>
yp en</w>
ränk ten</w>
n .
län ger
ge förder
descri be</w>
ver tief
Mac ed
M S
Beobachtungs stelle</w>
Be vollmäch
mö chten</w>
la g
besonder es</w>
auf träge</w>
or ten</w>
konz ept</w>
ausge deh
Herstell ungs
Wer ke</w>
V ier
Aufnahmem itgliedsta
sp unkt</w>
gos law
eng agement</w>
co m</w>
Nä he</w>
rati fication</w>
ju goslaw
bes ich
2 20
vo ted</w>
u f</w>
imp lies</w>
be came</w>
19 07</w>
chap ters</w>
else where</w>
cal i
Kohäsions fonds</w>
An zei
trans formation</w>
re is</w>
innov ativer</w>
v inc
ungsp läne</w>
conc ession</w>
coll ec
Konsult ations
Br and
var ieties</w>
be an</w>
tri eben</w>
be am
Con fe
Markt bedingungen</w>
gefähr liche</w>
wa re
sch lu
p es</w>
remo ving</w>
ampag ne</w>
W ür
Kohl enstoff
15 2</w>
pro ved</w>
mercur y</w>
intermedi ary</w>
sub system</w>
leh nung</w>
belie f</w>
an ol</w>
Wor te</w>
Luft verkehr</w>
unter einander</w>
qualifi zierter</w>
g rid</w>
app ing</w>
u ts</w>
gre mien</w>
K räf
Berechn ungen</w>
An sprüche</w>
lia ison</w>
vit ro</w>
pan -European</w>
letz tlich</w>
Ma zed
Bewer ber</w>
w oll
förm lichen</w>
decisi ve</w>
cop y
conc essions</w>
angewand ten</w>
X X</w>
EI T</w>
markt wirtschaftlich</w>
fin dung</w>
activ ation</w>
Zer tifizierungs
s emen</w>
rat ings</w>
opp elt</w>
fut ter
compu ter
wh at
Sen dung</w>
Energiet räger</w>
nach kommen</w>
gerü stet</w>
ander wei
C PA</w>
Abhilf emaßnahmen</w>
Plac ebo</w>
An lauf
fail s</w>
recipi ents</w>
Gegen satz</w>
EM AS</w>
Resol ution</w>
Human ressourcen</w>
contr ast</w>
ag er</w>
abschließ end</w>
N ah
str in
dienst es</w>
hol ds</w>
cor rid
Slov ak</w>
Sachverständi gen
CA S</w>
petro leum</w>
gew ahrt</w>
fil ter</w>
activ ated</w>
IC -
Confe deration</w>
prakti sch</w>
eh l</w>
pri m
G S
slaugh ter</w>
dis closed</w>
age ments
repräsent ativen</w>
gemel deten</w>
entreprene urs</w>
col our</w>
cat aly
appli ances</w>
achie vements</w>
re payment</w>
gen auer</w>
ail s</w>
Vor hand
Bet rags</w>
we ar</w>
sau ber
n ie</w>
G B</w>
over -
accommod ation</w>
V it
pat terns</w>
Fischerei politik</w>
her kömm
beihilfefä hi
Schied s
it -
Frei wil
Leit linie</w>
n am</w>
en ded</w>
bo gen</w>
Se el
verpflich tung</w>
verhältn isse</w>
fähig er</w>
em issions
Jah re
personen bezogenen</w>
individu ellen</w>
Ver hältn
Sch luß
unlaw ful</w>
dis ast
air space</w>
E- Ma
19 85</w>
voraus gesetzt</w>
stechn ologien</w>
gesch aff
expl or
standardis ed</w>
in her
for ts
di ameter</w>
EU- Vorschriften</w>
plan ungs
Strateg ie
off set</w>
gg f.</w>
f a</w>
am in</w>
. europa.eu</w>
richtlini en</w>
jahr e</w>
W -
Subsidiaritätsp rinzip</w>
Pat ent
ty re</w>
Kons ens</w>
Begriff s</w>
l ingu
character ised</w>
bor n</w>
www .
Arbeitslo sen
ic y
acknowle dges</w>
Offen legung</w>
ech te</w>
Sem ester</w>
Ori gin
resol ved</w>
güns tig
ep i
el abor
do ssier</w>
bewähr ten</w>
beantrag ten</w>
aus gebaut</w>
Americ an</w>
sp orts</w>
mod al</w>
Richtlinien vorschlag</w>
Mid dle</w>
CH MP</w>
Beteilig ungen</w>
eg en
compar ative</w>
reguli erung</w>
lea ders</w>
Tri bun
Hoch geschwindi
rich tig</w>
prohib it</w>
Milli ar
EC HO</w>
. .</w>
akzep tieren</w>
T V
S R
Er heb
erfolg reichen</w>
Mazed onien</w>
pla yed</w>
durch geführte</w>
blat ts</w>
Bel ege</w>
li erten</w>
co d</w>
bench marks</w>
T ER
M L
P hosp
Instru ments</w>
down stream</w>
co operative</w>
zusammen gefasst</w>
transpar ente</w>
gen ic</w>
der ten</w>
aus ländischen</w>
Wohn sitz</w>
ver arbeitung</w>
hep atic</w>
administr ativen</w>
Mobilf unk
Gesundheits schutz</w>
3 50</w>
vol tage</w>
klär t</w>
ti k</w>
em pl
Vorgehens weise</w>
Viet nam</w>
Ob st</w>
mess ungen</w>
Umwelt -</w>
K lau
Absch luss
re isen</w>
gehör enden</w>
Tren nung</w>
grundleg ender</w>
gesch lech
dämm ung</w>
K äufer</w>
Ernähr ung</w>
chlori de</w>
Straßen verkehr</w>
Krank en
Geschwindi gkeit</w>
Gesamth aushaltsp
öß en</w>
verfüg bare</w>
Entfer nung</w>
Bankno ten</w>
Mex ic
Kom pro
sta ke</w>
recru itment</w>
begrün den</w>
ank ungen</w>
Markt organisation</w>
GA TT</w>
G ep
mitzu teilen</w>
W W
Spezifi kation</w>
Sch ein
M T
Leit ung</w>
Argu mente</w>
li e</w>
Schiff es</w>
wen ig
be völk
Horizon t</w>
un gefähr</w>
st ore</w>
deli ber
as h</w>
an träge</w>
B ro
28 .
serio usly</w>
n ine</w>
läufi g</w>
f akul
aus ges
vertra glichen</w>
soli de</w>
Verhaltens kodex</w>
recht mäßig</w>
kl atur</w>
for tzus
Vertrau lichkeit</w>
scre ening</w>
reich enden</w>
occ o</w>
gn ieder
app e</w>
acqu ire</w>
7 3
Prozent punkte</w>
GM Os</w>
miss ing</w>
Klein st
den sity</w>
acknowle dged</w>
vereinfach t</w>
effek tiven</w>
Mitglied s
pre su
betrieb lichen</w>
Ob serv
mom ent
Rück zahlung</w>
k ohl
über arbeitet</w>
on-the- spot</w>
al ism</w>
ICCA T</w>
Hy dro
R ot
Mess ungen</w>
Fahr gast
fortzus etzen</w>
M AR
Konjun ktur
Haushalts mittel</w>
A s</w>
sh ap
eg ra
ar -
Besch einigungen</w>
to ff
re in</w>
jus ti
ing er
ges orgt</w>
ec ological</w>
Inter im
E .</w>
op lan
stät ten</w>
necess ity</w>
er stellten</w>
j ed
anc illary</w>
Jugen dliche</w>
u ten</w>
mer ely</w>
endgül tig</w>
deliver ing</w>
diox ide</w>
Zwei gnieder
high lights</w>
di o
Som alia</w>
A L</w>
net working</w>
Wirtschafts krise</w>
Sk y</w>
sec re
J HA</w>
Durch führ
Au ß
äu ch
m ung</w>
komplex e</w>
der ship</w>
de ter
ann ehmen</w>
Qu ecksil
Amts zeit</w>
00 1</w>
m isch
be haltung</w>
w an
direc tors</w>
aus ländische</w>
Hung arian</w>
Energie effizienz
8 53</w>
progres sive</w>
est er
Wirtschafts raum</w>
Wirk stoffs</w>
ursprün gliche</w>
err ors</w>
Ziel setzung</w>
sen k
get an</w>
Entwicklungs zusammenarbeit</w>
fin alised</w>
Folge maßnahmen</w>
slaugh ter
isier ten</w>
fer n
Produktions kosten</w>
fin es</w>
Veräuß erung</w>
Lenk ungs
quanti t
preser ve</w>
Wirtschaftsteil nehmer</w>
Maced onia</w>
Kraft fahrzeuge</w>
r in</w>
p ace</w>
ne arly</w>
co ins</w>
z onen</w>
ol a</w>
o C</w>
Win d
F ru
regim es</w>
medium- term</w>
ey e</w>
Finanzinstitu te</w>
C EN</w>
wor thiness</w>
s qu
en tic
distribut ors</w>
Mar ok
C e
b üro
appro ving</w>
P rü
Begriff e</w>
18 .
fra glichen</w>
dro p</w>
ameri kanischen</w>
Verantwor t
J I</w>
Ein tritt</w>
vern ünf
stre aming</w>
n ur
men tiert</w>
conc epts</w>
Lebens qualität</w>
Beein träch
mon o
Mor occo</w>
preser vation</w>
aus reichen</w>
ar tifi
Sub stanzen</w>
Schwei zer
wand s</w>
fas ern</w>
Währungs union</w>
Rahmen programms</w>
A ro
tra gn
resol ve</w>
proje kt</w>
Wider spruch</w>
Rück verfol
Mal i</w>
kontrolli erten</w>
dauerhaf t</w>
Tribun al</w>
Geb rau
verk nüpft</w>
G lu
Begüns tigte</w>
über nimmt</w>
sign als</w>
lo ck
lex ic
foc uses</w>
ch ro
befri st
si v
prosper ity</w>
prolifer ation</w>
extrac tion</w>
evalu ating</w>
erläu tern</w>
eingerei chten</w>
con vinc
comp il
insul in</w>
gewich te</w>
do gs</w>
an ese</w>
Zahl ungsan
Streit bei
lea dership</w>
institu tion
prin zi
ge folgt</w>
ens ei
ast -
Verzö gerungen</w>
Rech en
stat e-
sekt oren</w>
koordini eren</w>
enabl es</w>
an ce-
Gemein den</w>
bo il
b rü
Dig it
C L
Städ ten</w>
Besch le
tragn ehm
tem plate</w>
Wil d
P T</w>
Exper ten
B enz
12 3</w>
verlän gern</w>
pflan zen</w>
explor atory</w>
erh äl
Vari ablen</w>
orienti erten</w>
jo in</w>
h under
Pass agi
susp end</w>
she ets</w>
verwal tungs
unter halb</w>
studi ed</w>
1 16</w>
vorüber gehenden</w>
gro ß</w>
disp lay</w>
disast ers</w>
cl auses</w>
arri val</w>
bin den</w>
win d</w>
entru ms</w>
cali br
rich tete</w>
aer oplan
Finanz -</w>
Gemeinschafts markt</w>
h ör
d in
am tlich</w>
M A
2000- 2006</w>
ord inated</w>
höher er</w>
dis proportionate</w>
dig te</w>
Ver wahr
p on
Fischerei fahrzeuge</w>
sub mitting</w>
Stellung nahme
Ein sparungen</w>
10 0
priv atisation</w>
laun ching</w>
Z ur
Tab ellen</w>
lif e-
erwäh nten</w>
II .
Groß teil</w>
Gesundheits -</w>
Famili en</w>
neu n</w>
co oling</w>
ba virin</w>
ap parent</w>
an stelle</w>
Z one</w>
bri tischen</w>
benachtei ligten</w>
Komm ission
Ermittl ungen</w>
pack ages</w>
ge bers</w>
B ER
hinaus gehen</w>
gesch ul
deb tor</w>
Sam mel
Dec re
3 4
privil eg
inter vals</w>
haf t</w>
Lat einameri
Entla stung</w>
pr er
abges timmt</w>
Zusatz stoffe</w>
techn ically</w>
ein sparungen</w>
Gipf el</w>
w ann</w>
gel aden</w>
am ine</w>
Nieder lassung</w>
Natri um
W ill
Anteil seign
gen es</w>
vor bereit
Wor k
Ombud sm
Generaldirek tion</w>
zer tifi
vo ice</w>
te x</w>
sh aushal
geograph ic</w>
a zi
EM U</w>
residu al</w>
dri ed</w>
deh nung</w>
conduc ting</w>
Sozial politik</w>
Gerä ten</w>
sub stanz</w>
present ing</w>
auth entic
om e
in nung</w>
el derly</w>
blu e</w>
per s</w>
compli ant</w>
cei lings</w>
auf hin</w>
vor stehend</w>
miner al</w>
g .
dah in
Verknüpf ung</w>
Nichtein haltung</w>
3 ,5</w>
proz esse</w>
geänder te</w>
dis aster</w>
erstreck en</w>
ec es</w>
co efficient</w>
sub jected</w>
pap ier</w>
wahr nehmen</w>
ver bot</w>
g la
verbin dlichen</w>
vel op
forec asts</w>
mit teilung</w>
ele ktro
absor ption</w>
Konformitäts bewertungs
loo ks</w>
in test
ge prüften</w>
administr ator</w>
adequ acy</w>
Natur a</w>
ä r</w>
li ziert</w>
erk annt</w>
bei der</w>
AKP- Staaten</w>
fulfil s</w>
bel egt</w>
b it</w>
U ru
bet es</w>
EU- wide</w>
Aktiv ität</w>
innov ativen</w>
D R
Corpor ation</w>
gener ic</w>
dig ten</w>
aus rüstung</w>
T at</w>
Hal tung</w>
Euro bar
Autom obil
w issens
Trock en
lic it</w>
Getrei de</w>
B V</w>
pol nischen</w>
ne um
h our</w>
beauf sich
auth enti
reve aled</w>
fac to</w>
Kon tin
D esti
vis ual</w>
diversi fication</w>
Drittl and
D et
zwec k</w>
quar ters</w>
übergreif enden</w>
indepen dently</w>
2 16</w>
laub würdi
einheit licher</w>
bul k</w>
ausge übt</w>
EU- Recht</w>
fea sible</w>
bil d
ben ennen</w>
In betrieb
toler ance</w>
klar er</w>
an geb
K lage</w>
Flughaf ens</w>
ver zö
verbrauch er</w>
Ben utzung</w>
schlä gen</w>
invest ing</w>
integri ert</w>
W ass
Erwerb stätigkeit</w>
chan ge
appro ves</w>
staat s</w>
leg ten</w>
accoun ted</w>
pre miums</w>
k umuli
ein geführte</w>
cap sul
b al</w>
hand lung</w>
figh ting</w>
lo wer
el ung</w>
cro p</w>
bu yer</w>
E X</w>
sa ving</w>
perio di
Mar ket
Ein -</w>
chan nel</w>
auf einander</w>
Z B-
Sco re
mil ch</w>
method ologies</w>
erheb licher</w>
der -
Tochter unternehmen</w>
Pal est
Bau teile</w>
Stand punkte</w>
Inn en
f es</w>
entit lements</w>
R en
radio active</w>
predomin antly</w>
frü here</w>
SA PAR
Ausfuhr erstat
wettbewer b
verabschie deten</w>
simultan eously</w>
erk rank
Bi eter</w>
elektr ische</w>
auff or
Zins satz</w>
Nutz ern</w>
mig rant</w>
Geb ühr
le x</w>
einzel n</w>
Hochgeschwindi gkeits
eindeu tige</w>
pru dential</w>
b all
W äl
3. 1.
über mäßigen</w>
virtu e</w>
sa ve</w>
fu sions
bedeu ten</w>
afri ka</w>
Vor habens</w>
Aussch luss</w>
x es</w>
ver hältnismäßig</w>
ta g
L I</w>
Integ rität</w>
Beschle unig
ständi gkeit</w>
identifi es</w>
ge wer
Kraft fahrzeugen</w>
GB P</w>
rich tige</w>
e ability</w>
Yugosla v</w>
Erstat tungs
B li
op position</w>
hal tenen</w>
Eur or
D auer
umfangre iche</w>
Vernetz ung</w>
Ab fall</w>
12 9</w>
public ations</w>
beigefü gten</w>
öst lichen</w>
ma ize</w>
form in</w>
credi tor</w>
2. 8</w>
t ausch
bil anz</w>
2 10</w>
elev anz</w>
cu ts</w>
Res sourcen
For mul
St ück
29 .
explic it</w>
bl in
L ichte</w>
Aktions programm</w>
zutreff end</w>
ver mögen</w>
ter ten</w>
b ör
Geldwä sche</w>
wahr en</w>
nachhal tiger</w>
Risiko kapital
K as
Con stitution</w>
Szen ario</w>
r ho
kt es</w>
R elevanz</w>
G l
Beteilig te</w>
sus cep
recall s</w>
hel ps</w>
gebil det</w>
Vor aussch
en sein</w>
Observ atory</w>
incorpor ating</w>
ill ed</w>
ER DF</w>
occurr ence</w>
duk tion</w>
de fer
an ter</w>
Ein dämmung</w>
vorhand ene</w>
verursach ten</w>
versch affen</w>
scen arios</w>
qu ite</w>
ne uro
at ri
An teils</w>
inci dence</w>
ersch einen</w>
emphas ises</w>
Auftrags vergabe</w>
wider rufen</w>
Beitritts länder</w>
veran schla
th es
phen omen
ah nen</w>
F A</w>
ver l
Aus gabe</w>
sh ape</w>
Le as
ad t</w>
Sing ap
Dub lin</w>
ä quival
super vised</w>
res sive</w>
ansässi gen</w>
sch einen</w>
ro t
kon ten</w>
au ction</w>
Interessenkon flik
Am t
tro p
re tention</w>
n ic
Infek tion</w>
sen der</w>
pas sport</w>
ministeri um</w>
Komm un
strä gern</w>
Schwe fel
securiti sation</w>
grenz werte</w>
en si
derar tiger</w>
abo ve
Euro- Mediterranean</w>
eröff nen</w>
unter sagt</w>
tis h</w>
plat z</w>
co di
clean ing</w>
Ber uf</w>
18 2</w>
discre tion</w>
Pra kti
win den</w>
ann ul
a side</w>
zu cker</w>
substan tive</w>
s low</w>
pre- accession</w>
ent nommen</w>
Mad rid</w>
Indones ia</w>
Vor der
P esti
summ ar
physi kal
EUR ES</w>
meth yl
elektr ischen</w>
ad mitted</w>
Rechnung shofs</w>
Infek tionen</w>
über arbeiteten</w>
w öch
leit er</w>
la dung</w>
mer kt</w>
great est</w>
formuli ert</w>
balan cing</w>
at ori
Su dan</w>
Erkrank ungen</w>
z on
tender ing</w>
fron tier</w>
Zentral verwahr
Roh stoff
Partner ländern</w>
cham ber</w>
web sites</w>
parlia mentary</w>
ligh ting</w>
habit ats</w>
ent stand
pro fil</w>
presiden ts</w>
preser ved</w>
hau pt</w>
Ab teilung</w>
expl ore</w>
SC R</w>
0, 000</w>
ung st
provision ally</w>
f abri
bes orgt</w>
ass ungen</w>
G eld</w>
zeu g</w>
for tlauf
ter te</w>
meth yl</w>
ein gehen</w>
Zw angs
Uru gu
O L
L ö
angebo tenen</w>
Qualifi kations
Män ner</w>
welt weite</w>
un changed</w>
es el
Nomen klatur</w>
Flüchtl inge</w>
verantwor tliche</w>
purch ased</w>
Präsi di
4 50</w>
z ing</w>
poten ziell</w>
on au
hum ans</w>
c ols</w>
auszu gehen</w>
Alban ien</w>
we ak</w>
tl ing</w>
im age</w>
geleit eten</w>
copy right</w>
L ab
ver leihen</w>
künf tiger</w>
fin ished</w>
auszu bauen</w>
A si
inf ected</w>
erk enn
reser ved</w>
kan ische</w>
inner gemeinschaftlichen</w>
attribut ed</w>
Typ s</w>
Afri kanischen</w>
S port
M W</w>
Au ge</w>
st rom
d ental</w>
break s</w>
Sol v
Ausnahmer egelungen</w>
pa ket</w>
makro ökonomischen</w>
Schuld versch
er teilten</w>
all el
F e
9 99</w>
itä t
Sicherheits -</w>
Mand ats</w>
Haushaltsp lan</w>
gleichzei tige</w>
folgen d</w>
alisier te</w>
G an
riff e</w>
nehm ers</w>
Rin dern</w>
pro jected</w>
jung er</w>
feed ing
der ing</w>
orient ation</w>
lat t
kl au
hau shal
g ri
ergriff enen</w>
Versicherungs unternehmen</w>
OEC D-
tr aten</w>
continu ously</w>
a sten</w>
- Kop
tion ality</w>
tenzi als</w>
arbeit slo
above mentioned</w>
Schw anger
gleich ermaßen</w>
Kon tinu
ge treten</w>
bekämpf en</w>
Pesti zi
Biozi d
höchst e</w>
E M</w>
äuf en</w>
EU- Rechtsvorschriften</w>
Di vi
cumul ative</w>
Stra ß
14 1</w>
unmittel bare</w>
speci ally</w>
k am
inc iner
ich tet</w>
trac eability</w>
gleich wohl</w>
ei ra</w>
vis -
Programm planungs
secur ing</w>
recei ves</w>
pro ven</w>
kl ass
demokrati sche</w>
wen n
deci des</w>
dahin gehend</w>
Luft fahrzeuge</w>
Doku ments</w>
Am tes</w>
kat astro
hom ogen
Beh aup
compet ing</w>
organ s</w>
klau sel</w>
Sch ließ
Sch au
D im
Bem ess
5 40</w>
ser ved</w>
comm only</w>
Wertpapierfir men</w>
ent es</w>
bevölk erung</w>
Vor ab
Trag fähigkeit</w>
geschloss ene</w>
organis m</w>
man n</w>
ir gend
er gebenden</w>
PL N</w>
N ZB</w>
system atisch</w>
frei ungen</w>
ein gehende</w>
beschäf tig
O lymp
G ast
but ter</w>
C .</w>
B G</w>
Aus dehnung</w>
prefer red</w>
fehl t</w>
Strei tigkeiten</w>
Schwer punkte</w>
Durchstechfla sche</w>
Beteilig ungs
ie gen</w>
französ ische</w>
ein gebunden</w>
cho ices</w>
Dy nam
wenn gleich</w>
ord nen</w>
audiovis uellen</w>
an gle</w>
L s</w>
Indi an</w>
sch au
aus zur
Zoll kodex</w>
Preis es</w>
st rom</w>
fahrzeu g</w>
controll ing</w>
comp lic
Handels -</w>
Ex ist
sulph ur</w>
met als</w>
high- level</w>
Gesamth eit</w>
Al li
ul en</w>
diver se</w>
EC O
soci etal</w>
proto cols</w>
k und
bi g</w>
Bei behaltung</w>
cre ates</w>
ung sch
pro ben</w>
hän dler</w>
12 8</w>
hr en</w>
frag mentation</w>
Stand punkts</w>
Gipf el
G ran
Er träge</w>
E Q
Gewich ts
Dex ia</w>
norweg ischen</w>
accoun tability</w>
Zusammen halts</w>
Versorgungs sicherheit</w>
min ing</w>
appoin ting</w>
Poli zei
sti eg
frei er</w>
fra gt</w>
authenti c</w>
ab wehr</w>
H aus
ü cher</w>
mo stly</w>
Ter min</w>
Seel eu
Luftfahrzeu g
regi erungs
civi lian</w>
R O</w>
Flüchtl ing
19 .
lan des</w>
il l</w>
Verbrauch s
Diversi fizierung</w>
C S</w>
ver mark
Fu E</w>
zeit lich</w>
kontinuier lich</w>
incorpor ate</w>
con form</w>
W aff
Ver ed
Fach wissen</w>
Beam te</w>
re medi
le verage</w>
einheit lich</w>
Ombudsm an</w>
widerspi egeln</w>
consist ently</w>
ausgedeh nt</w>
H G</w>
Gre mium</w>
Al kohol
re me
erhöh ten</w>
ari en</w>
teleph one</w>
merg ers</w>
lig keit</w>
inc or
Erzeuger organisationen</w>
Beitritts ländern</w>
resi li
red ness</w>
Hy po
se af
defin es</w>
Sä ule</w>
Pen sions
Apothek er</w>
un related</w>
su r</w>
infec tions</w>
Erforder nissen</w>
wid met</w>
statisti ken</w>
respec ts</w>
am mon
Entsor gung</w>
Desti ll
un vereinbar</w>
ge forderten</w>
folgen dem</w>
align ment</w>
Coll ege</w>
z icht
mä h
lü ssel</w>
isier ungs-</w>
Imp ul
Icel an
up s</w>
re posit
st ation
so ft</w>
re b
behin dert</w>
Gegen ständen</w>
E ch
Dumping spanne</w>
reme dies</w>
mar ke</w>
dauerhaf te</w>
Angeleg enheit</w>
guarante eing</w>
chil d
Normal wert</w>
Mün zen</w>
An frage</w>
verwal tungen</w>
seu chen
recogn ising</w>
on y</w>
koordini erte</w>
step p
ab decken</w>
Icelan dic</w>
sel ten</w>
größ erer</w>
gelag ert</w>
ativ ität</w>
an o</w>
Vollstreck ungs
z er</w>
wa ff
reiter ates</w>
ef s</w>
dis close</w>
beton te</w>
An nahmen</w>
mat ch</w>
kon ven
intelligen te</w>
incor rec
Angebo ts
persön liche</w>
ox id</w>
St är
Mer co
transpor tation</w>
chron ic</w>
beg in</w>
assu me</w>
Urhe ber
win do
bo ards</w>
asp ekte</w>
an forderung</w>
polic y-
be ta-
Europ ar
Beur teilungs
öpf t</w>
share holder</w>
safegu arding</w>
rüf ung</w>
gu es</w>
ati s</w>
a stri
I P-
Auf wendungen</w>
AM S</w>
m p</w>
RE X</w>
kti v</w>
eu er</w>
eng ere</w>
Ent sch
Energie -</w>
teach ers</w>
ex hi
ergrei ft</w>
e de</w>
The men
über haupt</w>
ös en</w>
a ment</w>
Berufs bildung</w>
Begriffs bestimmung</w>
strin gent</w>
an passen</w>
War tung</w>
Politik bereiche</w>
F E</w>
y es</w>
sol le</w>
konkre t</w>
appropri ately</w>
To des
D S</w>
li sting</w>
horizont alen</w>
h ung</w>
em bar
G az
Akti en
8. 1</w>
p el
lif ying</w>
comm and</w>
An weisungs
nutri tion</w>
li gen
geord neten</w>
counter parties</w>
ro ut
pl ung</w>
multi- annual</w>
for st
erwar tete</w>
compo und</w>
mangel nde</w>
NU TS</w>
targe ting</w>
konsolidi erten</w>
f onds
B lau
verkauf ten</w>
prof itable</w>
don ors</w>
compens ate</w>
T rau
pro be</w>
ong side</w>
al ongside</w>
Schluß fol
wor d</w>
se x</w>
rob ust</w>
geschäf ten</w>
en .
dar aufhin</w>
Score board</w>
Milliar den</w>
pe ak</w>
Tur k
Kul turen</w>
Außen beziehungen</w>
weiter zu
ol t</w>
kri tische</w>
Z ol
I W
hinzu weisen</w>
der er</w>
beg inn</w>
unver zicht
NO x</w>
posi tions
a emia</w>
Verst ößen</w>
Überprüf ungs
restri al</w>
fla g
Terror ismus
objec ts</w>
ho uses</w>
12 7</w>
fail ing</w>
dispar ities</w>
a des</w>
Stromer zeugung</w>
Kon ten</w>
I L</w>
verb änden</w>
stell ern</w>
men tion</w>
geh ung</w>
Kontinu ität</w>
o ts</w>
fehl ende</w>
Indi kator</w>
EA SA</w>
li s</w>
wo gen</w>
schn ell
gän gen</w>
An bietern</w>
14 5</w>
gering ere</w>
dou bt</w>
da y-
d op
Prä ferenz
NR P</w>
Besitz stand</w>
sch em</w>
pharmac ist</w>
gra v
ge halte</w>
Verb ände</w>
r y
pre isen</w>
ifi cation</w>
Vizeprä sident</w>
Miner al
Gesamt kosten</w>
Betrei bern</w>
credi ts</w>
les en</w>
N AT</w>
Erforder nis</w>
at titu
prefer ences</w>
o sis</w>
Marok ko</w>
Kalender jahr</w>
reit en</w>
an lässlich</w>
na ment
be ten</w>
N ähr
Do sierung</w>
val idated</w>
modi fy</w>
horizont ale</w>
Unterab satz</w>
sh öchst
h em
ful filling</w>
U L
re ar</w>
discipl inary</w>
L ad
Z iegen</w>
19 86</w>
benef iting</w>
b lie
ter restrial</w>
kur ze</w>
at ric</w>
Si x
Ko finanzierung</w>
1 1
them es</w>
deduc tion</w>
Verwaltungs verfahren</w>
erhäl tlich</w>
orienti erte</w>
est ers</w>
acceler ate</w>
9 00</w>
kompon enten</w>
fossi l</w>
1. 10</w>
reg ulation</w>
high- quality</w>
gew innung</w>
gegrün det</w>
vor genommenen</w>
un ions
pursu ing</w>
ess -
Dump ing</w>
Besch lüssen</w>
territori alen</w>
stück en</w>
all mäh
Wirtschaftszwei ge</w>
Auftrag s</w>
äst in
Wer be
13 5</w>
schwerwieg ende</w>
ahl en</w>
An gemess
organis ierte</w>
ethn ic</w>
author ized</w>
Schla ch
- vis</w>
serv ants</w>
bankno tes</w>
at in
zi ellen</w>
yiel d</w>
differ en
Vorhand ensein</w>
resul tier
gewä sser</w>
ein verstanden</w>
Regulierungs behörde</w>
Ph are</w>
6 48</w>
mach ine</w>
Proz ent</w>
à -vis</w>
decentral ised</w>
attrac t</w>
advan ces</w>
G MO</w>
zivil en</w>
top ic</w>
controll er</w>
[...]
